<unk>	0
<s>	0
</s>	0
he	-0
▁t	-1
▁a	-2
▁s	-3
▁w	-4
nd	-5
▁the	-6
ed	-7
▁and	-8
▁to	-9
▁b	-10
in	-11
▁h	-12
▁wa	-13
re	-14
▁f	-15
ou	-16
it	-17
▁T	-18
▁l	-19
▁c	-20
▁d	-21
er	-22
▁he	-23
▁m	-24
▁p	-25
▁was	-26
om	-27
▁o	-28
ay	-29
▁The	-30
ar	-31
is	-32
ing	-33
il	-34
▁g	-35
id	-36
▁S	-37
at	-38
en	-39
▁n	-40
▁sa	-41
▁ha	-42
an	-43
im	-44
or	-45
on	-46
▁it	-47
▁H	-48
▁th	-49
ll	-50
le	-51
▁"	-52
▁her	-53
▁She	-54
ot	-55
et	-56
ir	-57
▁He	-58
▁They	-59
es	-60
▁in	-61
ver	-62
ut	-63
ow	-64
▁L	-65
ck	-66
▁e	-67
▁u	-68
ld	-69
ily	-70
▁y	-71
oo	-72
▁said	-73
ig	-74
▁r	-75
am	-76
▁be	-77
▁st	-78
▁I	-79
ce	-80
▁she	-81
ke	-82
pp	-83
ith	-84
ve	-85
▁with	-86
▁O	-87
▁Lily	-88
▁On	-89
▁on	-90
▁of	-91
ri	-92
ked	-93
▁his	-94
▁you	-95
▁pl	-96
▁so	-97
nt	-98
very	-99
ad	-100
▁B	-101
▁day	-102
▁that	-103
▁up	-104
▁play	-105
▁had	-106
▁they	-107
st	-108
▁we	-109
▁mom	-110
▁for	-111
el	-112
my	-113
ould	-114
un	-115
▁M	-116
▁li	-117
▁happ	-118
ch	-119
ent	-120
itt	-121
▁want	-122
her	-123
▁sh	-124
out	-125
▁do	-126
▁not	-127
▁very	-128
ome	-129
ly	-130
all	-131
ound	-132
end	-133
ittle	-134
ime	-135
se	-136
▁wh	-137
▁k	-138
▁little	-139
▁time	-140
▁there	-141
al	-142
▁ne	-143
ht	-144
▁A	-145
▁happy	-146
▁big	-147
▁re	-148
▁It	-149
▁is	-150
▁sm	-151
▁but	-152
ra	-153
▁saw	-154
riend	-155
▁friend	-156
▁an	-157
ry	-158
▁as	-159
ack	-160
."	-161
▁Tim	-162
▁One	-163
ide	-164
ake	-165
ved	-166
ter	-167
ug	-168
▁Once	-169
▁lo	-170
▁loo	-171
▁were	-172
ore	-173
!"	-174
ec	-175
▁bo	-176
▁him	-177
▁too	-178
▁J	-179
▁se	-180
▁go	-181
irl	-182
▁upon	-183
▁wanted	-184
▁j	-185
ard	-186
▁girl	-187
ill	-188
▁are	-189
▁them	-190
▁out	-191
▁at	-192
▁their	-193
ind	-194
▁sp	-195
way	-196
fu	-197
▁Tom	-198
▁did	-199
ur	-200
▁could	-201
▁Ben	-202
hen	-203
▁smil	-204
ain	-205
▁have	-206
art	-207
▁went	-208
hed	-209
▁ex	-210
rom	-211
ic	-212
round	-213
lp	-214
▁W	-215
▁nam	-216
▁can	-217
ful	-218
▁friends	-219
hing	-220
▁help	-221
▁But	-222
▁kn	-223
▁all	-224
ood	-225
ight	-226
?"	-227
▁Timmy	-228
um	-229
ark	-230
one	-231
▁back	-232
▁fun	-233
▁cl	-234
are	-235
▁say	-236
▁le	-237
You	-238
▁named	-239
▁no	-240
▁loved	-241
op	-242
elt	-243
oug	-244
▁al	-245
▁sc	-246
side	-247
▁felt	-248
▁toy	-249
ick	-250
▁smiled	-251
▁man	-252
▁fe	-253
▁asked	-254
▁see	-255
ame	-256
▁looked	-257
▁like	-258
▁around	-259
▁some	-260
omet	-261
ure	-262
▁ro	-263
▁boy	-264
▁br	-265
get	-266
▁would	-267
▁me	-268
▁bir	-269
ong	-270
ice	-271
▁start	-272
ss	-273
▁somet	-274
▁bird	-275
ings	-276
▁fa	-277
▁wor	-278
▁ag	-279
ade	-280
▁make	-281
▁what	-282
▁tre	-283
dd	-284
king	-285
gether	-286
own	-287
▁away	-288
▁ran	-289
ag	-290
▁started	-291
,"	-292
▁You	-293
oud	-294
▁made	-295
ared	-296
▁Mom	-297
ie	-298
▁together	-299
▁co	-300
▁says	-301
▁park	-302
▁something	-303
if	-304
▁car	-305
ther	-306
ited	-307
▁sad	-308
▁put	-309
▁new	-310
▁other	-311
▁E	-312
▁pr	-313
▁F	-314
ble	-315
▁again	-316
▁from	-317
▁exc	-318
▁hug	-319
▁mu	-320
▁home	-321
▁la	-322
ell	-323
▁when	-324
▁who	-325
ook	-326
▁good	-327
est	-328
ried	-329
▁found	-330
▁then	-331
ep	-332
ach	-333
▁dec	-334
▁fl	-335
pped	-336
▁ch	-337
as	-338
▁playing	-339
ought	-340
▁wal	-341
▁get	-342
qu	-343
ally	-344
hat	-345
▁things	-346
▁sw	-347
uck	-348
▁got	-349
pl	-350
ous	-351
▁liked	-352
nn	-353
▁every	-354
▁D	-355
▁decid	-356
▁excited	-357
ave	-358
▁Su	-359
▁decided	-360
ro	-361
▁came	-362
▁Sam	-363
ax	-364
▁bl	-365
▁bec	-366
▁down	-367
▁your	-368
▁find	-369
▁care	-370
▁dog	-371
ust	-372
▁Ann	-373
▁scared	-374
▁one	-375
▁feel	-376
▁v	-377
▁than	-378
ist	-379
ouse	-380
ny	-381
▁dad	-382
ap	-383
▁ab	-384
arn	-385
ara	-386
ways	-387
▁didn	-388
▁Max	-389
▁gra	-390
▁my	-391
▁always	-392
ant	-393
▁took	-394
ers	-395
▁ke	-396
▁mommy	-397
ess	-398
▁Anna	-399
fe	-400
▁about	-401
our	-402
▁lot	-403
▁toys	-404
▁tree	-405
▁po	-406
▁kne	-407
▁ball	-408
▁look	-409
▁will	-410
nder	-411
▁outside	-412
▁Sara	-413
ite	-414
▁So	-415
▁thought	-416
eci	-417
▁bu	-418
ened	-419
▁ta	-420
▁learn	-421
bb	-422
ise	-423
ched	-424
▁When	-425
▁more	-426
▁pre	-427
▁know	-428
▁ho	-429
▁int	-430
▁pu	-431
ged	-432
ecial	-433
▁special	-434
▁old	-435
▁take	-436
▁sor	-437
▁Her	-438
▁laug	-439
▁pe	-440
▁knew	-441
au	-442
ive	-443
▁cat	-444
ma	-445
fter	-446
▁how	-447
▁any	-448
dden	-449
▁show	-450
▁Jo	-451
▁tr	-452
▁much	-453
ia	-454
ddenly	-455
▁Every	-456
and	-457
▁sorry	-458
▁sl	-459
ink	-460
ish	-461
▁run	-462
▁house	-463
▁tw	-464
▁Jack	-465
ven	-466
▁told	-467
▁or	-468
▁sk	-469
▁op	-470
▁hand	-471
▁sun	-472
▁inside	-473
▁gave	-474
▁tried	-475
▁mo	-476
▁clo	-477
▁into	-478
▁water	-479
▁proud	-480
ank	-481
▁couldn	-482
▁over	-483
▁qu	-484
ause	-485
ate	-486
▁never	-487
ump	-488
here	-489
ty	-490
other	-491
▁en	-492
▁eat	-493
▁if	-494
ace	-495
▁room	-496
▁played	-497
etter	-498
▁heard	-499
ge	-500
▁expl	-501
▁From	-502
▁each	-503
▁pick	-504
▁pret	-505
ion	-506
▁this	-507
by	-508
▁We	-509
dy	-510
ak	-511
▁because	-512
▁Suddenly	-513
▁hugged	-514
▁str	-515
▁com	-516
▁wat	-517
▁gre	-518
▁box	-519
▁Then	-520
▁just	-521
▁nice	-522
ile	-523
oth	-524
ue	-525
▁need	-526
▁His	-527
iz	-528
▁Mia	-529
▁jo	-530
▁off	-531
▁And	-532
▁many	-533
▁long	-534
▁bear	-535
▁small	-536
▁fo	-537
sed	-538
ving	-539
▁sn	-540
ough	-541
▁learned	-542
ort	-543
ine	-544
▁unt	-545
uc	-546
imal	-547
▁animal	-548
gry	-549
▁try	-550
▁better	-551
ild	-552
sel	-553
▁until	-554
▁love	-555
urt	-556
▁C	-557
ft	-558
▁im	-559
em	-560
▁dre	-561
▁end	-562
▁kind	-563
▁call	-564
▁cle	-565
ber	-566
▁flow	-567
▁ad	-568
▁best	-569
urn	-570
vent	-571
aut	-572
ars	-573
ady	-574
▁fi	-575
▁careful	-576
▁sky	-577
▁fast	-578
▁gr	-579
ves	-580
▁thanked	-581
▁even	-582
▁beaut	-583
Yes	-584
▁bra	-585
urp	-586
arden	-587
▁garden	-588
▁don	-589
pt	-590
lly	-591
▁che	-592
▁cu	-593
▁te	-594
▁by	-595
self	-596
▁lots	-597
ies	-598
iny	-599
▁gl	-600
▁loud	-601
▁laughed	-602
▁fam	-603
▁jump	-604
▁â	-605
ase	-606
▁beauti	-607
lew	-608
▁list	-609
▁still	-610
wn	-611
▁beautiful	-612
rm	-613
Th	-614
▁hard	-615
▁way	-616
▁come	-617
▁hurt	-618
▁wo	-619
▁animals	-620
ct	-621
▁ra	-622
sh	-623
ast	-624
hes	-625
▁col	-626
▁under	-627
▁rem	-628
▁P	-629
ning	-630
▁safe	-631
▁stay	-632
ect	-633
▁As	-634
be	-635
▁let	-636
▁Joh	-637
▁lived	-638
▁both	-639
ool	-640
▁After	-641
ople	-642
▁imp	-643
▁brave	-644
▁family	-645
▁its	-646
kay	-647
▁bad	-648
ob	-649
▁dan	-650
▁red	-651
▁stor	-652
ished	-653
▁book	-654
▁two	-655
ane	-656
ree	-657
▁fin	-658
▁people	-659
▁su	-660
ucy	-661
▁should	-662
urpr	-663
ock	-664
▁called	-665
▁flew	-666
▁Lucy	-667
▁fly	-668
▁pic	-669
igh	-670
▁walked	-671
▁surpr	-672
▁angry	-673
▁soon	-674
▁fore	-675
▁doll	-676
xt	-677
led	-678
▁kept	-679
▁clean	-680
▁share	-681
It	-682
fore	-683
ised	-684
▁rock	-685
▁pretty	-686
No	-687
▁dra	-688
▁going	-689
ip	-690
▁door	-691
Let	-692
▁con	-693
▁G	-694
▁keep	-695
▁ground	-696
▁shiny	-697
▁opened	-698
dded	-699
▁advent	-700
ummy	-701
▁real	-702
▁now	-703
▁John	-704
▁wind	-705
▁cry	-706
illy	-707
▁explore	-708
age	-709
▁cre	-710
▁sto	-711
▁ide	-712
▁before	-713
▁noise	-714
▁fr	-715
▁color	-716
ary	-717
▁turn	-718
les	-719
so	-720
▁far	-721
ture	-722
▁also	-723
▁picked	-724
▁feeling	-725
ied	-726
▁while	-727
▁Bob	-728
▁ey	-729
▁idea	-730
▁Dad	-731
imb	-732
▁climb	-733
▁next	-734
ff	-735
thing	-736
▁bed	-737
▁un	-738
▁Mommy	-739
▁wr	-740
oy	-741
eet	-742
▁thr	-743
▁has	-744
What	-745
▁walking	-746
▁smile	-747
▁picture	-748
ger	-749
iced	-750
▁truck	-751
▁nodded	-752
▁adventure	-753
th	-754
▁ma	-755
aybe	-756
▁N	-757
TM	-758
kes	-759
▁being	-760
ember	-761
ted	-762
Thank	-763
ious	-764
joy	-765
ac	-766
▁clos	-767
ting	-768
▁give	-769
▁Sp	-770
▁food	-771
▁tra	-772
▁looking	-773
▁wait	-774
▁R	-775
▁listen	-776
▁stopped	-777
That	-778
▁blue	-779
ized	-780
ught	-781
▁tow	-782
▁remember	-783
▁bre	-784
▁dif	-785
▁after	-786
▁bro	-787
▁hands	-788
▁noticed	-789
▁think	-790
maz	-791
▁eyes	-792
▁del	-793
▁amaz	-794
▁walk	-795
able	-796
▁quick	-797
▁own	-798
▁enjoy	-799
▁forest	-800
▁dis	-801
▁slide	-802
▁great	-803
▁ever	-804
▁showed	-805
▁repl	-806
▁watch	-807
irst	-808
▁strong	-809
▁flowers	-810
▁app	-811
bbit	-812
▁everyone	-813
▁import	-814
▁wonder	-815
▁rain	-816
▁fish	-817
▁work	-818
llow	-819
▁vo	-820
▁ac	-821
▁tal	-822
▁boat	-823
▁near	-824
▁ask	-825
▁stick	-826
▁okay	-827
▁head	-828
▁important	-829
▁where	-830
▁shout	-831
▁mean	-832
oon	-833
▁Sue	-834
▁rabbit	-835
gan	-836
▁place	-837
▁right	-838
▁us	-839
bye	-840
▁sound	-841
bbed	-842
▁ru	-843
▁quickly	-844
▁yell	-845
▁follow	-846
▁replied	-847
▁use	-848
▁bright	-849
lease	-850
▁watched	-851
▁dress	-852
▁Spot	-853
▁de	-854
fere	-855
ange	-856
▁became	-857
▁tou	-858
day	-859
▁differe	-860
ath	-861
▁mor	-862
ered	-863
▁ar	-864
▁sure	-865
co	-866
ndma	-867
▁cake	-868
We	-869
▁child	-870
▁curi	-871
▁high	-872
▁been	-873
▁mag	-874
ount	-875
▁Jane	-876
▁store	-877
▁our	-878
▁warm	-879
▁ye	-880
aught	-881
▁hop	-882
▁squ	-883
▁face	-884
▁goodbye	-885
▁forg	-886
more	-887
▁different	-888
▁anymore	-889
▁Th	-890
▁closer	-891
▁does	-892
Look	-893
leep	-894
ng	-895
▁curious	-896
▁cook	-897
▁tell	-898
▁am	-899
▁voice	-900
▁night	-901
itc	-902
ila	-903
imes	-904
▁Sarah	-905
▁pain	-906
▁bel	-907
ired	-908
▁butter	-909
▁open	-910
ached	-911
▁fav	-912
ey	-913
ass	-914
▁helped	-915
▁first	-916
▁Lila	-917
▁fell	-918
ull	-919
▁Everyone	-920
▁cont	-921
▁happened	-922
▁z	-923
▁lea	-924
▁three	-925
▁sees	-926
iss	-927
Can	-928
▁kitc	-929
▁kitchen	-930
▁pull	-931
▁fire	-932
▁flo	-933
▁birds	-934
▁block	-935
▁grabbed	-936
▁sweet	-937
▁story	-938
▁here	-939
▁only	-940
▁kid	-941
▁brother	-942
▁dr	-943
unny	-944
▁glad	-945
▁sand	-946
▁bit	-947
▁grass	-948
▁realized	-949
ppy	-950
▁In	-951
ater	-952
▁jumped	-953
orn	-954
▁beh	-955
▁mon	-956
▁per	-957
▁draw	-958
▁stop	-959
▁reached	-960
▁Do	-961
▁cra	-962
▁sing	-963
ins	-964
▁That	-965
▁having	-966
▁cr	-967
▁mess	-968
zy	-969
nts	-970
▁rest	-971
▁ba	-972
▁through	-973
▁tri	-974
▁prin	-975
air	-976
▁ate	-977
▁soft	-978
▁pap	-979
▁less	-980
isy	-981
▁ready	-982
▁yummy	-983
where	-984
Mom	-985
▁world	-986
▁hat	-987
akes	-988
▁game	-989
▁fix	-990
▁Let	-991
▁really	-992
▁lady	-993
▁shouted	-994
▁pare	-995
▁favor	-996
▁began	-997
▁favorite	-998
▁himself	-999
▁underst	-1000
▁cut	-1001
▁tired	-1002
▁magic	-1003
▁duck	-1004
fully	-1005
▁pretend	-1006
ken	-1007
▁used	-1008
▁mum	-1009
▁tast	-1010
ather	-1011
▁butterf	-1012
uff	-1013
▁thing	-1014
▁done	-1015
▁worry	-1016
▁coming	-1017
ign	-1018
▁making	-1019
illed	-1020
▁catch	-1021
▁Can	-1022
▁kids	-1023
▁funny	-1024
▁name	-1025
eddy	-1026
Wow	-1027
▁Joe	-1028
▁seen	-1029
▁Sally	-1030
▁Fin	-1031
ster	-1032
▁pond	-1033
▁looks	-1034
▁cars	-1035
▁cried	-1036
▁fro	-1037
▁ste	-1038
▁another	-1039
ient	-1040
▁top	-1041
▁why	-1042
▁prom	-1043
olly	-1044
▁waved	-1045
▁flower	-1046
▁bag	-1047
▁part	-1048
▁bunny	-1049
▁hair	-1050
▁parents	-1051
▁touch	-1052
bo	-1053
ards	-1054
▁paper	-1055
▁gi	-1056
▁din	-1057
Don	-1058
▁Tommy	-1059
▁light	-1060
▁green	-1061
▁dri	-1062
▁cool	-1063
▁delic	-1064
▁dro	-1065
▁Benny	-1066
▁lesson	-1067
▁hole	-1068
▁swim	-1069
▁trees	-1070
iver	-1071
▁yellow	-1072
▁surprise	-1073
▁behind	-1074
▁remembered	-1075
▁floor	-1076
oney	-1077
▁hold	-1078
ely	-1079
hy	-1080
ued	-1081
▁worked	-1082
mer	-1083
▁full	-1084
▁thank	-1085
▁running	-1086
rel	-1087
▁hopped	-1088
ation	-1089
▁sleep	-1090
andy	-1091
▁wished	-1092
▁spot	-1093
▁smell	-1094
▁set	-1095
ike	-1096
▁blocks	-1097
▁cold	-1098
▁lost	-1099
▁sat	-1100
▁happily	-1101
us	-1102
▁read	-1103
▁wear	-1104
▁doing	-1105
▁dream	-1106
▁needed	-1107
▁dark	-1108
▁mouse	-1109
▁stre	-1110
▁bow	-1111
aisy	-1112
▁wood	-1113
▁Em	-1114
▁slow	-1115
▁laugh	-1116
ren	-1117
▁butterfly	-1118
▁sho	-1119
▁At	-1120
▁carefully	-1121
▁tall	-1122
▁years	-1123
▁-	-1124
▁left	-1125
▁likes	-1126
▁surprised	-1127
▁hill	-1128
▁window	-1129
▁frog	-1130
▁swing	-1131
▁enjoyed	-1132
▁held	-1133
▁finished	-1134
▁snow	-1135
▁hear	-1136
▁move	-1137
▁buy	-1138
▁There	-1139
ens	-1140
".	-1141
▁wrong	-1142
▁K	-1143
▁ice	-1144
▁perf	-1145
ined	-1146
▁followed	-1147
▁air	-1148
▁Finally	-1149
▁arri	-1150
▁lion	-1151
ul	-1152
▁fair	-1153
▁Jim	-1154
▁Now	-1155
▁herself	-1156
▁hid	-1157
▁anything	-1158
▁contin	-1159
▁Billy	-1160
Hell	-1161
Hello	-1162
▁hun	-1163
▁close	-1164
▁dir	-1165
▁To	-1166
▁children	-1167
▁bug	-1168
▁friendly	-1169
cess	-1170
▁rel	-1171
▁cast	-1172
▁table	-1173
asure	-1174
TMs	-1175
sy	-1176
▁build	-1177
▁arm	-1178
▁forgot	-1179
▁wonderful	-1180
▁Daisy	-1181
▁might	-1182
▁arrived	-1183
ds	-1184
ield	-1185
▁delicious	-1186
▁understand	-1187
▁Jen	-1188
▁agre	-1189
▁el	-1190
▁tight	-1191
ross	-1192
▁hot	-1193
▁please	-1194
▁colors	-1195
▁grandma	-1196
▁someone	-1197
▁Molly	-1198
ner	-1199
▁song	-1200
▁Gra	-1201
▁count	-1202
▁books	-1203
▁filled	-1204
▁gone	-1205
▁continued	-1206
▁broken	-1207
▁able	-1208
▁leaves	-1209
▁scre	-1210
▁gent	-1211
av	-1212
▁else	-1213
sp	-1214
▁wants	-1215
▁creat	-1216
ask	-1217
▁This	-1218
▁vis	-1219
▁wall	-1220
lf	-1221
shed	-1222
▁yes	-1223
▁baby	-1224
uffy	-1225
atter	-1226
▁pink	-1227
▁break	-1228
room	-1229
man	-1230
ich	-1231
▁poin	-1232
gon	-1233
▁amazing	-1234
▁gu	-1235
ries	-1236
▁mar	-1237
▁Maybe	-1238
▁getting	-1239
icy	-1240
▁enough	-1241
▁pictures	-1242
▁fight	-1243
▁white	-1244
oup	-1245
▁comp	-1246
▁castle	-1247
▁agreed	-1248
▁dinner	-1249
row	-1250
irrel	-1251
▁mus	-1252
▁moment	-1253
▁mother	-1254
▁stayed	-1255
▁fall	-1256
ash	-1257
▁morning	-1258
▁cookies	-1259
app	-1260
ced	-1261
▁Amy	-1262
▁scary	-1263
▁trying	-1264
▁climbed	-1265
▁finally	-1266
▁fur	-1267
▁sometimes	-1268
▁sail	-1269
▁others	-1270
▁wet	-1271
▁pi	-1272
▁ju	-1273
▁smiles	-1274
▁hungry	-1275
ctor	-1276
▁squirrel	-1277
▁Jill	-1278
▁talk	-1279
ons	-1280
ence	-1281
▁clot	-1282
▁met	-1283
▁clothes	-1284
▁brought	-1285
ama	-1286
apped	-1287
ister	-1288
red	-1289
oom	-1290
▁turned	-1291
▁perfect	-1292
▁roll	-1293
ere	-1294
▁daddy	-1295
lc	-1296
▁makes	-1297
▁cream	-1298
▁few	-1299
▁listened	-1300
oring	-1301
ee	-1302
▁tail	-1303
▁wasn	-1304
▁everything	-1305
ance	-1306
▁spl	-1307
▁strange	-1308
rot	-1309
▁sear	-1310
▁balloon	-1311
▁pol	-1312
▁beach	-1313
▁puppy	-1314
▁joy	-1315
▁sit	-1316
ated	-1317
▁What	-1318
ower	-1319
▁ride	-1320
der	-1321
zz	-1322
▁waited	-1323
▁spark	-1324
▁thre	-1325
▁music	-1326
wl	-1327
▁amazed	-1328
ever	-1329
▁Fl	-1330
▁alone	-1331
amp	-1332
os	-1333
▁visit	-1334
▁silly	-1335
▁danger	-1336
ucky	-1337
key	-1338
▁Soon	-1339
▁teddy	-1340
ott	-1341
▁asks	-1342
▁pet	-1343
▁woods	-1344
ope	-1345
▁deep	-1346
▁All	-1347
ang	-1348
▁hide	-1349
eter	-1350
▁grow	-1351
▁leave	-1352
▁sister	-1353
▁side	-1354
ugg	-1355
▁pie	-1356
Oh	-1357
▁cloud	-1358
amed	-1359
ssed	-1360
▁flying	-1361
med	-1362
▁lake	-1363
▁pulled	-1364
This	-1365
▁fox	-1366
▁promised	-1367
▁pat	-1368
gg	-1369
ix	-1370
▁dance	-1371
▁towards	-1372
eces	-1373
▁treasure	-1374
me	-1375
▁sec	-1376
▁field	-1377
ames	-1378
ph	-1379
▁pieces	-1380
ises	-1381
▁plan	-1382
▁runs	-1383
▁shared	-1384
Maybe	-1385
▁bigger	-1386
cket	-1387
ained	-1388
▁ve	-1389
▁won	-1390
▁thinks	-1391
▁em	-1392
▁land	-1393
▁moral	-1394
thy	-1395
▁treat	-1396
But	-1397
▁owner	-1398
▁living	-1399
▁pen	-1400
▁ele	-1401
▁bran	-1402
▁grate	-1403
▁bott	-1404
▁dolls	-1405
▁shar	-1406
▁candy	-1407
igg	-1408
avy	-1409
▁party	-1410
Okay	-1411
▁everywhere	-1412
▁grateful	-1413
cle	-1414
set	-1415
▁cup	-1416
▁blank	-1417
▁bike	-1418
▁slowly	-1419
outh	-1420
▁paint	-1421
▁job	-1422
▁such	-1423
sw	-1424
▁Mr	-1425
▁belie	-1426
▁worried	-1427
▁join	-1428
▁welc	-1429
▁mouth	-1430
▁blanket	-1431
▁faster	-1432
▁plant	-1433
ret	-1434
fort	-1435
ually	-1436
▁answ	-1437
▁broke	-1438
unch	-1439
▁money	-1440
ling	-1441
iet	-1442
▁shap	-1443
▁gif	-1444
▁reach	-1445
▁magical	-1446
▁Mama	-1447
▁snack	-1448
▁bar	-1449
▁colorful	-1450
ire	-1451
ident	-1452
uit	-1453
ased	-1454
▁helping	-1455
▁princess	-1456
▁cho	-1457
▁doctor	-1458
▁race	-1459
▁dragon	-1460
▁acc	-1461
▁river	-1462
▁nap	-1463
▁pro	-1464
▁sign	-1465
less	-1466
▁quiet	-1467
▁crying	-1468
orm	-1469
ipped	-1470
ze	-1471
▁black	-1472
▁most	-1473
ol	-1474
▁dangerous	-1475
Sure	-1476
▁stepped	-1477
▁train	-1478
▁att	-1479
▁smart	-1480
▁bowl	-1481
▁farmer	-1482
▁pa	-1483
▁mix	-1484
▁heavy	-1485
▁Jimmy	-1486
▁pot	-1487
▁monster	-1488
▁je	-1489
ored	-1490
▁stu	-1491
ming	-1492
bble	-1493
▁twins	-1494
▁words	-1495
▁Daddy	-1496
Mommy	-1497
ear	-1498
▁dirty	-1499
▁across	-1500
▁Emma	-1501
▁disapp	-1502
▁same	-1503
▁eating	-1504
▁stuck	-1505
▁closed	-1506
OK	-1507
▁Just	-1508
▁fruit	-1509
▁threw	-1510
▁must	-1511
▁tower	-1512
▁pass	-1513
▁wouldn	-1514
▁buck	-1515
cked	-1516
▁Fluffy	-1517
▁spr	-1518
▁hig	-1519
▁win	-1520
▁accident	-1521
The	-1522
▁cray	-1523
▁monkey	-1524
▁carrot	-1525
Why	-1526
ord	-1527
▁bath	-1528
▁heal	-1529
▁feels	-1530
▁teac	-1531
iting	-1532
▁bite	-1533
eared	-1534
Hi	-1535
asket	-1536
umb	-1537
▁pushed	-1538
▁Mary	-1539
▁butt	-1540
▁town	-1541
chool	-1542
▁past	-1543
▁heart	-1544
▁basket	-1545
ipp	-1546
▁hoped	-1547
br	-1548
▁without	-1549
▁hit	-1550
▁coll	-1551
▁clapped	-1552
▁Mum	-1553
▁pack	-1554
▁believe	-1555
▁stand	-1556
▁Grandma	-1557
▁pers	-1558
▁forget	-1559
▁fairy	-1560
▁school	-1561
▁cheered	-1562
phant	-1563
▁bee	-1564
▁smo	-1565
▁lon	-1566
▁fence	-1567
de	-1568
▁Wh	-1569
orrow	-1570
▁cour	-1571
▁yard	-1572
▁brown	-1573
▁Tw	-1574
▁chair	-1575
▁drove	-1576
ract	-1577
▁adventures	-1578
▁noises	-1579
ier	-1580
▁higher	-1581
ventually	-1582
▁lonely	-1583
▁teacher	-1584
▁elephant	-1585
▁today	-1586
TMt	-1587
ney	-1588
▁pocket	-1589
▁upset	-1590
ors	-1591
cy	-1592
vel	-1593
▁turns	-1594
▁swings	-1595
▁gentle	-1596
▁longer	-1597
▁wings	-1598
▁welcome	-1599
▁free	-1600
▁games	-1601
ts	-1602
▁course	-1603
▁ben	-1604
▁explained	-1605
▁neck	-1606
▁suddenly	-1607
▁leg	-1608
▁Inside	-1609
▁jour	-1610
ead	-1611
▁secret	-1612
▁star	-1613
issed	-1614
ountain	-1615
▁whe	-1616
▁dry	-1617
▁corn	-1618
▁soup	-1619
▁bring	-1620
▁shop	-1621
▁inst	-1622
▁happen	-1623
▁neigh	-1624
▁dropped	-1625
▁plac	-1626
▁hugs	-1627
yard	-1628
▁trou	-1629
▁piece	-1630
▁min	-1631
▁throw	-1632
▁neighb	-1633
▁swam	-1634
ible	-1635
▁stories	-1636
▁sang	-1637
▁backyard	-1638
itting	-1639
▁Later	-1640
▁Their	-1641
ment	-1642
▁wish	-1643
▁rocks	-1644
▁bucket	-1645
▁well	-1646
▁late	-1647
ek	-1648
▁naught	-1649
▁apple	-1650
▁belong	-1651
▁owl	-1652
▁ph	-1653
ches	-1654
▁naughty	-1655
ces	-1656
▁orange	-1657
▁taking	-1658
▁along	-1659
▁lunch	-1660
ocked	-1661
▁drink	-1662
fused	-1663
ung	-1664
▁jar	-1665
▁exploring	-1666
▁exp	-1667
▁cou	-1668
▁sea	-1669
▁es	-1670
▁young	-1671
bow	-1672
▁dist	-1673
▁seemed	-1674
▁Al	-1675
▁singing	-1676
oun	-1677
▁shook	-1678
▁mat	-1679
▁ca	-1680
▁moved	-1681
▁caught	-1682
▁war	-1683
▁nearby	-1684
▁pig	-1685
▁key	-1686
▁wise	-1687
▁Tweet	-1688
▁shoes	-1689
▁stars	-1690
▁Sammy	-1691
▁tiny	-1692
▁though	-1693
▁woke	-1694
▁Thank	-1695
▁tom	-1696
▁des	-1697
▁miss	-1698
llo	-1699
▁af	-1700
▁mail	-1701
ail	-1702
ions	-1703
▁bus	-1704
vered	-1705
cer	-1706
▁sick	-1707
col	-1708
▁bench	-1709
ape	-1710
▁carry	-1711
▁relie	-1712
▁resp	-1713
Lily	-1714
▁nest	-1715
▁shapes	-1716
cing	-1717
Do	-1718
ittens	-1719
▁arms	-1720
▁rainbow	-1721
idge	-1722
▁branch	-1723
▁kite	-1724
▁mine	-1725
▁driver	-1726
▁juice	-1727
▁busy	-1728
▁takes	-1729
▁ob	-1730
aughter	-1731
raid	-1732
▁afraid	-1733
let	-1734
▁wondered	-1735
itch	-1736
▁mad	-1737
ward	-1738
▁cir	-1739
ining	-1740
▁sitting	-1741
▁cow	-1742
▁mark	-1743
ese	-1744
▁mil	-1745
cks	-1746
▁street	-1747
▁comes	-1748
▁inv	-1749
▁accidentally	-1750
▁round	-1751
ho	-1752
▁nose	-1753
▁disco	-1754
▁king	-1755
▁3	-1756
▁forever	-1757
▁year	-1758
▁farm	-1759
▁whist	-1760
▁band	-1761
▁peace	-1762
▁lift	-1763
▁sounds	-1764
▁daughter	-1765
sting	-1766
▁gift	-1767
to	-1768
▁egg	-1769
▁cute	-1770
bby	-1771
thday	-1772
ball	-1773
▁exciting	-1774
adow	-1775
▁cozy	-1776
▁fit	-1777
ity	-1778
▁letter	-1779
▁purp	-1780
▁coat	-1781
▁wra	-1782
ours	-1783
▁boun	-1784
▁power	-1785
▁relieved	-1786
▁hello	-1787
▁nothing	-1788
▁patient	-1789
▁intere	-1790
▁holding	-1791
▁laughing	-1792
▁huge	-1793
▁journey	-1794
pping	-1795
▁mist	-1796
shine	-1797
▁imag	-1798
▁spoon	-1799
▁swimming	-1800
itten	-1801
▁gigg	-1802
▁milk	-1803
▁days	-1804
▁sunshine	-1805
▁life	-1806
▁comfort	-1807
▁fing	-1808
▁purple	-1809
gged	-1810
▁Come	-1811
▁Jenny	-1812
▁later	-1813
▁touched	-1814
▁instead	-1815
▁act	-1816
▁birthday	-1817
Of	-1818
irt	-1819
eth	-1820
▁road	-1821
▁cheese	-1822
▁inc	-1823
▁With	-1824
fish	-1825
▁ear	-1826
▁sunny	-1827
alm	-1828
ped	-1829
unt	-1830
▁ret	-1831
▁gives	-1832
▁searched	-1833
ness	-1834
▁fan	-1835
▁bread	-1836
▁bought	-1837
▁pointed	-1838
▁anyone	-1839
▁onto	-1840
▁bottle	-1841
board	-1842
▁pres	-1843
ose	-1844
▁ducks	-1845
ize	-1846
▁storm	-1847
sc	-1848
▁hope	-1849
▁return	-1850
▁lucky	-1851
▁plane	-1852
▁tasty	-1853
▁cave	-1854
▁creature	-1855
▁watching	-1856
blem	-1857
▁grab	-1858
Hey	-1859
▁Ell	-1860
▁pudd	-1861
▁Mittens	-1862
▁problem	-1863
▁ce	-1864
▁smiling	-1865
ndp	-1866
▁rope	-1867
▁Somet	-1868
▁kick	-1869
▁spo	-1870
▁crayons	-1871
▁shell	-1872
▁eas	-1873
▁sharp	-1874
aur	-1875
▁spid	-1876
els	-1877
▁meet	-1878
▁promise	-1879
▁snowman	-1880
▁person	-1881
▁honey	-1882
▁danced	-1883
ond	-1884
▁puzz	-1885
epend	-1886
▁interesting	-1887
ten	-1888
▁talked	-1889
▁sandw	-1890
▁button	-1891
▁quest	-1892
▁Ch	-1893
▁collect	-1894
▁bush	-1895
og	-1896
ove	-1897
▁zoom	-1898
▁trouble	-1899
▁wide	-1900
▁card	-1901
▁kiss	-1902
itty	-1903
▁smelled	-1904
▁spin	-1905
▁present	-1906
▁ap	-1907
▁ent	-1908
▁lovely	-1909
▁apples	-1910
▁pract	-1911
▁adm	-1912
▁write	-1913
▁giant	-1914
▁healthy	-1915
ont	-1916
▁clouds	-1917
▁pill	-1918
▁shining	-1919
▁gather	-1920
izz	-1921
▁par	-1922
umber	-1923
▁rolled	-1924
isa	-1925
▁cheer	-1926
▁places	-1927
ndpa	-1928
▁front	-1929
Good	-1930
▁puts	-1931
▁Emily	-1932
owed	-1933
▁loves	-1934
▁which	-1935
▁saf	-1936
▁vill	-1937
▁sur	-1938
▁path	-1939
▁How	-1940
▁spotted	-1941
ub	-1942
▁tun	-1943
▁hon	-1944
▁worm	-1945
▁Re	-1946
▁impre	-1947
▁clever	-1948
▁shr	-1949
▁organ	-1950
▁myster	-1951
bar	-1952
▁lay	-1953
▁matter	-1954
▁feather	-1955
up	-1956
▁tasted	-1957
▁Together	-1958
▁eag	-1959
▁wild	-1960
▁zoo	-1961
▁med	-1962
▁trip	-1963
▁prot	-1964
▁respect	-1965
een	-1966
▁di	-1967
▁bark	-1968
▁St	-1969
▁hor	-1970
▁couch	-1971
▁suc	-1972
▁thin	-1973
▁pop	-1974
▁whole	-1975
ching	-1976
▁foot	-1977
▁protect	-1978
erly	-1979
▁asleep	-1980
▁pile	-1981
ular	-1982
▁spent	-1983
▁building	-1984
▁Lisa	-1985
▁dirt	-1986
cean	-1987
▁ocean	-1988
▁lad	-1989
▁knee	-1990
▁goes	-1991
▁coin	-1992
▁spider	-1993
barra	-1994
▁wearing	-1995
▁embarra	-1996
▁mountain	-1997
▁pretended	-1998
nic	-1999
▁slid	-2000
▁picnic	-2001
▁screamed	-2002
▁Sometimes	-2003
▁faces	-2004
▁phone	-2005
▁teach	-2006
▁sack	-2007
▁snake	-2008
▁answer	-2009
▁seat	-2010
▁appeared	-2011
▁confused	-2012
Come	-2013
oose	-2014
▁gently	-2015
▁talking	-2016
ife	-2017
▁sal	-2018
▁furry	-2019
eb	-2020
▁helpful	-2021
▁mud	-2022
▁drive	-2023
la	-2024
lex	-2025
▁mind	-2026
▁pan	-2027
▁supp	-2028
▁ladder	-2029
▁push	-2030
▁oven	-2031
▁ign	-2032
▁Jake	-2033
▁cart	-2034
ale	-2035
▁rec	-2036
▁ser	-2037
▁whenever	-2038
arge	-2039
▁val	-2040
▁corner	-2041
▁Le	-2042
unk	-2043
▁Go	-2044
▁wom	-2045
▁chocol	-2046
▁calm	-2047
œI	-2048
▁splas	-2049
▁woman	-2050
▁Bu	-2051
▁ban	-2052
▁neighbor	-2053
▁last	-2054
▁tool	-2055
▁Peter	-2056
▁mach	-2057
▁blew	-2058
▁fixed	-2059
read	-2060
▁ring	-2061
▁fighting	-2062
▁finish	-2063
▁waiting	-2064
▁wave	-2065
▁spicy	-2066
▁forgive	-2067
ert	-2068
▁tid	-2069
bbles	-2070
▁feet	-2071
▁minut	-2072
▁spread	-2073
▁delight	-2074
▁ash	-2075
▁taste	-2076
▁Be	-2077
▁teeth	-2078
▁eventually	-2079
▁live	-2080
▁embarrassed	-2081
▁pour	-2082
▁horse	-2083
▁tomorrow	-2084
▁remind	-2085
▁bell	-2086
▁scar	-2087
▁cookie	-2088
▁smooth	-2089
▁Mummy	-2090
▁rocket	-2091
ones	-2092
▁Teddy	-2093
per	-2094
▁ant	-2095
▁shy	-2096
▁fold	-2097
▁cloth	-2098
▁chocolate	-2099
mo	-2100
▁While	-2101
▁tries	-2102
▁colour	-2103
old	-2104
oph	-2105
▁step	-2106
▁tea	-2107
▁large	-2108
▁neckl	-2109
▁songs	-2110
▁hiding	-2111
▁banan	-2112
Tom	-2113
▁kitten	-2114
▁paw	-2115
▁spray	-2116
▁spe	-2117
urse	-2118
▁rob	-2119
▁hum	-2120
▁pool	-2121
▁shirt	-2122
ery	-2123
▁emp	-2124
▁ple	-2125
▁cann	-2126
▁wash	-2127
▁pizz	-2128
▁empty	-2129
ungle	-2130
▁Some	-2131
▁village	-2132
▁creative	-2133
lebr	-2134
▁bugs	-2135
▁grew	-2136
▁jungle	-2137
▁tidy	-2138
▁tightly	-2139
als	-2140
getable	-2141
▁cannot	-2142
dge	-2143
▁coo	-2144
▁knocked	-2145
▁whistle	-2146
▁vegetable	-2147
▁rep	-2148
▁sol	-2149
▁celebr	-2150
umpy	-2151
airs	-2152
ato	-2153
nny	-2154
▁TV	-2155
den	-2156
▁chick	-2157
▁rude	-2158
▁wore	-2159
▁trust	-2160
St	-2161
arm	-2162
▁barked	-2163
▁robot	-2164
▁wip	-2165
▁peaceful	-2166
▁Everywhere	-2167
▁puddle	-2168
▁sparkly	-2169
ush	-2170
▁necklace	-2171
My	-2172
▁'	-2173
▁Johnny	-2174
ground	-2175
▁hears	-2176
▁chased	-2177
ighed	-2178
▁pizza	-2179
▁Alice	-2180
▁Please	-2181
▁stret	-2182
▁sel	-2183
▁stir	-2184
▁meant	-2185
ned	-2186
▁bal	-2187
▁moon	-2188
▁gun	-2189
▁stra	-2190
▁maybe	-2191
▁puzzle	-2192
▁hidden	-2193
▁net	-2194
▁pin	-2195
▁save	-2196
ian	-2197
▁treats	-2198
▁gen	-2199
▁meadow	-2200
▁cross	-2201
▁carrots	-2202
inted	-2203
box	-2204
lower	-2205
pper	-2206
▁mot	-2207
era	-2208
▁snacks	-2209
▁sticks	-2210
dle	-2211
▁carried	-2212
▁missed	-2213
gly	-2214
ustr	-2215
ult	-2216
▁forward	-2217
▁flut	-2218
▁seed	-2219
▁tells	-2220
▁splash	-2221
▁av	-2222
▁group	-2223
▁bat	-2224
▁crab	-2225
▁sour	-2226
▁prince	-2227
▁machine	-2228
▁shelf	-2229
▁ber	-2230
▁clear	-2231
▁ugly	-2232
▁string	-2233
▁selfish	-2234
▁Br	-2235
▁disappo	-2236
▁jumping	-2237
ird	-2238
▁Sus	-2239
▁Even	-2240
aul	-2241
▁gold	-2242
iger	-2243
elly	-2244
▁lem	-2245
kin	-2246
▁leaf	-2247
▁frustr	-2248
▁burn	-2249
▁Kitty	-2250
▁knowing	-2251
▁gray	-2252
▁stood	-2253
ying	-2254
▁legs	-2255
▁roar	-2256
▁landed	-2257
▁police	-2258
▁yelled	-2259
Please	-2260
▁Little	-2261
most	-2262
▁sharing	-2263
▁honest	-2264
▁Leo	-2265
▁pir	-2266
▁circ	-2267
ator	-2268
▁stone	-2269
eterm	-2270
hin	-2271
▁blow	-2272
▁whis	-2273
▁Z	-2274
▁Why	-2275
▁determ	-2276
▁standing	-2277
▁drew	-2278
▁plate	-2279
▁breath	-2280
▁almost	-2281
▁gar	-2282
▁nods	-2283
vous	-2284
▁fancy	-2285
▁frustrated	-2286
Stop	-2287
▁seek	-2288
▁number	-2289
▁disappointed	-2290
▁test	-2291
▁sleepy	-2292
iff	-2293
orry	-2294
ital	-2295
▁Rex	-2296
▁these	-2297
aking	-2298
uce	-2299
itter	-2300
▁fear	-2301
▁scream	-2302
▁powerful	-2303
▁mysterious	-2304
▁feed	-2305
▁pillow	-2306
▁gener	-2307
▁hours	-2308
▁polite	-2309
▁hosp	-2310
▁fil	-2311
pack	-2312
▁hospital	-2313
ser	-2314
▁gas	-2315
▁jew	-2316
▁line	-2317
▁medic	-2318
▁ashamed	-2319
ffe	-2320
▁plants	-2321
▁cries	-2322
▁decor	-2323
ecially	-2324
▁ner	-2325
ets	-2326
ote	-2327
▁reg	-2328
▁returned	-2329
issors	-2330
ual	-2331
izzy	-2332
▁understood	-2333
▁Don	-2334
▁Mark	-2335
▁sheep	-2336
▁nervous	-2337
▁medicine	-2338
▁scissors	-2339
ensive	-2340
▁twirl	-2341
▁spoil	-2342
▁expensive	-2343
ony	-2344
▁shore	-2345
▁packed	-2346
pecially	-2347
▁especially	-2348
sist	-2349
▁scarf	-2350
osaur	-2351
▁bored	-2352
▁pay	-2353
▁passed	-2354
▁dancing	-2355
▁sandwich	-2356
▁vegetables	-2357
▁nut	-2358
▁taught	-2359
▁van	-2360
▁garage	-2361
▁poor	-2362
▁saved	-2363
▁grumpy	-2364
▁closet	-2365
ina	-2366
▁pri	-2367
light	-2368
▁become	-2369
▁hel	-2370
▁mummy	-2371
▁ruined	-2372
▁scr	-2373
▁taken	-2374
▁finger	-2375
▁gate	-2376
▁drum	-2377
▁comfortable	-2378
▁fill	-2379
▁messy	-2380
iddle	-2381
▁cand	-2382
▁dinosaur	-2383
▁Susie	-2384
▁Today	-2385
▁easy	-2386
▁sold	-2387
▁bedroom	-2388
▁Bl	-2389
▁exam	-2390
▁ones	-2391
▁generous	-2392
▁pleased	-2393
▁asking	-2394
ano	-2395
▁class	-2396
▁success	-2397
ym	-2398
▁wis	-2399
▁yourself	-2400
▁working	-2401
▁determined	-2402
oop	-2403
▁glue	-2404
▁pray	-2405
▁ship	-2406
▁fig	-2407
▁giggled	-2408
▁hopping	-2409
▁sailed	-2410
imp	-2411
▁balls	-2412
▁motor	-2413
▁stuff	-2414
▁boring	-2415
▁cri	-2416
▁vase	-2417
▁glass	-2418
▁wagged	-2419
▁kissed	-2420
▁hur	-2421
▁mov	-2422
▁mistake	-2423
▁often	-2424
▁OK	-2425
ates	-2426
▁sighed	-2427
▁esc	-2428
Where	-2429
▁dest	-2430
▁excite	-2431
▁minutes	-2432
▁playground	-2433
▁true	-2434
▁wheel	-2435
▁lead	-2436
▁brush	-2437
▁chest	-2438
▁boys	-2439
▁chew	-2440
▁answered	-2441
erp	-2442
▁weak	-2443
▁clown	-2444
▁waves	-2445
▁gathered	-2446
iness	-2447
▁drop	-2448
▁fake	-2449
▁spend	-2450
▁thankful	-2451
illi	-2452
▁Brown	-2453
▁tears	-2454
Ben	-2455
▁rad	-2456
mb	-2457
▁tick	-2458
selves	-2459
▁middle	-2460
▁content	-2461
▁hang	-2462
▁jelly	-2463
▁pus	-2464
▁team	-2465
ots	-2466
▁eld	-2467
▁gets	-2468
▁excitement	-2469
▁cap	-2470
▁lemon	-2471
▁questions	-2472
▁eggs	-2473
▁lock	-2474
Who	-2475
arl	-2476
▁flag	-2477
▁tent	-2478
▁fridge	-2479
▁skipped	-2480
▁change	-2481
▁smelly	-2482
▁wrote	-2483
▁rid	-2484
▁drawing	-2485
▁lit	-2486
▁relax	-2487
▁add	-2488
▁fruits	-2489
▁discovered	-2490
oof	-2491
aged	-2492
Sorry	-2493
▁bridge	-2494
▁knight	-2495
ete	-2496
▁sight	-2497
▁bathroom	-2498
▁board	-2499
▁match	-2500
▁mir	-2501
▁dogs	-2502
Are	-2503
▁Ella	-2504
▁knife	-2505
▁shows	-2506
▁clap	-2507
▁lazy	-2508
▁wolf	-2509
▁queen	-2510
▁fluffy	-2511
▁sil	-2512
▁tag	-2513
▁covered	-2514
que	-2515
▁check	-2516
▁sweetie	-2517
▁famous	-2518
▁mighty	-2519
ork	-2520
cept	-2521
▁ord	-2522
▁bake	-2523
▁drank	-2524
▁picks	-2525
▁distance	-2526
▁mic	-2527
ella	-2528
▁ang	-2529
▁nod	-2530
▁disappeared	-2531
▁Mrs	-2532
▁Fred	-2533
▁deer	-2534
▁lying	-2535
ror	-2536
▁No	-2537
▁boss	-2538
erpill	-2539
▁crown	-2540
▁towel	-2541
▁wander	-2542
▁caterpill	-2543
▁Eventually	-2544
usual	-2545
▁walks	-2546
▁unusual	-2547
▁fre	-2548
▁map	-2549
▁soap	-2550
▁eager	-2551
▁calling	-2552
ti	-2553
▁bone	-2554
▁fis	-2555
▁ind	-2556
▁shoot	-2557
▁moving	-2558
▁If	-2559
▁ed	-2560
▁sell	-2561
▁decide	-2562
▁elderly	-2563
obby	-2564
▁lose	-2565
▁stones	-2566
▁Blue	-2567
ination	-2568
▁cover	-2569
▁borrow	-2570
Now	-2571
body	-2572
▁dig	-2573
▁dish	-2574
▁cleaned	-2575
elp	-2576
▁splashed	-2577
ating	-2578
▁End	-2579
▁glow	-2580
▁week	-2581
▁crawl	-2582
arth	-2583
▁cage	-2584
imed	-2585
▁cher	-2586
work	-2587
umbled	-2588
▁incred	-2589
▁hunt	-2590
▁feathers	-2591
▁banana	-2592
▁offered	-2593
asing	-2594
▁caterpillar	-2595
▁Pete	-2596
▁yours	-2597
▁kindness	-2598
▁eye	-2599
alous	-2600
▁coins	-2601
▁juicy	-2602
▁father	-2603
▁U	-2604
▁brilli	-2605
▁jealous	-2606
▁Dave	-2607
▁Tweety	-2608
▁branches	-2609
▁tape	-2610
▁cam	-2611
▁cost	-2612
▁bottom	-2613
▁mirror	-2614
▁organized	-2615
▁body	-2616
▁lamp	-2617
▁brilliant	-2618
▁rare	-2619
▁toug	-2620
fast	-2621
▁tie	-2622
▁craw	-2623
▁horn	-2624
▁thick	-2625
▁crawled	-2626
▁Sn	-2627
▁tunn	-2628
▁hurts	-2629
▁depend	-2630
port	-2631
▁balance	-2632
▁measure	-2633
▁colourful	-2634
▁bubbles	-2635
▁breakfast	-2636
▁impressed	-2637
Help	-2638
▁ext	-2639
▁licked	-2640
olog	-2641
ugar	-2642
▁hero	-2643
▁once	-2644
▁twist	-2645
▁incredible	-2646
▁fool	-2647
▁joke	-2648
▁rough	-2649
▁tiger	-2650
▁trucks	-2651
▁fine	-2652
▁libr	-2653
▁Bella	-2654
▁boxes	-2655
▁tough	-2656
▁wagon	-2657
appy	-2658
▁smoke	-2659
▁apolog	-2660
▁adventur	-2661
▁happening	-2662
bin	-2663
▁Mar	-2664
▁cabin	-2665
▁managed	-2666
?".	-2667
Tim	-2668
ilt	-2669
amond	-2670
▁flash	-2671
▁sugar	-2672
▁favour	-2673
▁realised	-2674
▁bitter	-2675
▁trunk	-2676
▁adventurous	-2677
▁wrapped	-2678
hip	-2679
rag	-2680
▁jog	-2681
▁chase	-2682
▁falls	-2683
▁flute	-2684
▁noisy	-2685
▁aw	-2686
▁sugg	-2687
▁added	-2688
▁suggest	-2689
▁favourite	-2690
▁dizzy	-2691
Me	-2692
▁ok	-2693
▁harm	-2694
▁melt	-2695
▁record	-2696
▁diamond	-2697
▁mixed	-2698
▁circles	-2699
▁foolish	-2700
▁sunf	-2701
▁market	-2702
ddy	-2703
▁pump	-2704
▁accept	-2705
lies	-2706
ured	-2707
▁jam	-2708
▁log	-2709
▁wand	-2710
▁guess	-2711
▁safely	-2712
yal	-2713
keep	-2714
land	-2715
▁word	-2716
▁extra	-2717
▁louder	-2718
ory	-2719
▁arg	-2720
▁Bobo	-2721
▁needs	-2722
▁lifted	-2723
ately	-2724
edient	-2725
▁cheerful	-2726
▁jack	-2727
▁magn	-2728
▁turt	-2729
▁shark	-2730
▁dependable	-2731
▁pil	-2732
▁ter	-2733
▁ears	-2734
apping	-2735
uggled	-2736
▁pointing	-2737
▁wrap	-2738
▁berries	-2739
▁dreamed	-2740
Be	-2741
▁moms	-2742
▁grown	-2743
▁jewel	-2744
▁against	-2745
▁grandpa	-2746
ira	-2747
▁pee	-2748
▁figure	-2749
▁giving	-2750
▁ham	-2751
▁grace	-2752
▁weal	-2753
▁frown	-2754
Well	-2755
▁bags	-2756
▁swan	-2757
▁movie	-2758
▁Whenever	-2759
▁twig	-2760
▁Mandy	-2761
▁dreams	-2762
▁balloons	-2763
▁belonged	-2764
head	-2765
ique	-2766
omed	-2767
laimed	-2768
▁learning	-2769
▁stronger	-2770
▁dolp	-2771
▁edge	-2772
▁exclaimed	-2773
▁yarn	-2774
▁sword	-2775
▁search	-2776
▁unique	-2777
▁slipped	-2778
emo	-2779
▁hats	-2780
▁loyal	-2781
▁choose	-2782
▁My	-2783
rage	-2784
▁Nemo	-2785
▁shake	-2786
▁loudly	-2787
▁enjoying	-2788
fic	-2789
oppy	-2790
iable	-2791
▁spun	-2792
▁obedient	-2793
▁happiness	-2794
anut	-2795
anged	-2796
▁tools	-2797
▁marble	-2798
ready	-2799
▁squee	-2800
▁laughs	-2801
▁rich	-2802
▁walls	-2803
▁lean	-2804
▁tele	-2805
▁camera	-2806
▁reliable	-2807
▁four	-2808
iv	-2809
ext	-2810
▁mod	-2811
▁unl	-2812
ature	-2813
▁already	-2814
▁cleaning	-2815
aw	-2816
▁angel	-2817
▁terri	-2818
▁diffic	-2819
oot	-2820
▁bull	-2821
▁clay	-2822
▁means	-2823
▁crayon	-2824
▁useful	-2825
ipe	-2826
▁goat	-2827
▁Bobby	-2828
▁buttons	-2829
▁painting	-2830
gy	-2831
ention	-2832
ages	-2833
shion	-2834
▁barn	-2835
▁straw	-2836
▁using	-2837
▁compet	-2838
umbers	-2839
▁bloom	-2840
▁stubb	-2841
▁tunnel	-2842
▁turtle	-2843
▁independ	-2844
▁tank	-2845
▁helps	-2846
▁scare	-2847
▁circle	-2848
▁difficult	-2849
cil	-2850
▁Dan	-2851
▁thu	-2852
▁norm	-2853
keeper	-2854
▁pencil	-2855
▁thoughtful	-2856
Here	-2857
▁fier	-2858
▁bushes	-2859
▁fright	-2860
▁peanut	-2861
▁painted	-2862
▁nosy	-2863
▁sounded	-2864
zed	-2865
▁guit	-2866
▁Ducky	-2867
▁times	-2868
▁stream	-2869
▁counted	-2870
▁gem	-2871
▁whale	-2872
▁office	-2873
▁ref	-2874
▁bald	-2875
▁dove	-2876
▁skin	-2877
▁parrot	-2878
▁liz	-2879
▁competit	-2880
▁stubborn	-2881
▁birdie	-2882
▁fierce	-2883
ado	-2884
wards	-2885
▁Mike	-2886
▁knows	-2887
▁toast	-2888
ye	-2889
▁rug	-2890
▁Alex	-2891
▁island	-2892
▁normal	-2893
▁invited	-2894
▁wealthy	-2895
▁cop	-2896
▁swe	-2897
▁joined	-2898
▁saying	-2899
▁explored	-2900
ject	-2901
▁cro	-2902
cient	-2903
▁Rose	-2904
▁frag	-2905
orge	-2906
▁icy	-2907
▁soar	-2908
▁crack	-2909
▁weird	-2910
▁notice	-2911
▁independent	-2912
▁numbers	-2913
▁sunflower	-2914
▁mole	-2915
▁post	-2916
▁design	-2917
▁pirate	-2918
▁brothers	-2919
▁Fr	-2920
erry	-2921
inary	-2922
▁grap	-2923
▁bossy	-2924
▁fat	-2925
▁harder	-2926
▁smaller	-2927
ouses	-2928
▁built	-2929
▁spoiled	-2930
ines	-2931
▁prep	-2932
▁seem	-2933
▁guitar	-2934
▁stairs	-2935
▁ancient	-2936
▁march	-2937
▁lights	-2938
▁chicken	-2939
▁stumbled	-2940
▁rode	-2941
▁stri	-2942
▁enorm	-2943
▁fresh	-2944
▁sauce	-2945
▁picking	-2946
▁fountain	-2947
▁beet	-2948
▁cact	-2949
▁valu	-2950
▁escape	-2951
▁fragile	-2952
▁enormous	-2953
▁resc	-2954
▁seeds	-2955
▁houses	-2956
▁poured	-2957
▁Grandpa	-2958
▁whisp	-2959
▁Cl	-2960
▁suit	-2961
œLet	-2962
▁hose	-2963
▁envel	-2964
▁reminded	-2965
▁mem	-2966
▁pow	-2967
ither	-2968
▁Soph	-2969
irp	-2970
▁bump	-2971
▁cudd	-2972
▁fork	-2973
▁kinds	-2974
▁trump	-2975
▁bounce	-2976
▁proudly	-2977
▁practice	-2978
▁ways	-2979
▁penny	-2980
▁city	-2981
▁salad	-2982
▁costum	-2983
▁pepper	-2984
▁frightened	-2985
aid	-2986
pid	-2987
ache	-2988
▁chose	-2989
▁solve	-2990
▁cactus	-2991
▁shells	-2992
▁admired	-2993
▁fingers	-2994
▁searching	-2995
ola	-2996
▁Ge	-2997
▁half	-2998
▁roof	-2999
▁wake	-3000
▁tummy	-3001
▁thirst	-3002
▁showing	-3003
▁delighted	-3004
▁cone	-3005
▁dull	-3006
alk	-3007
dom	-3008
arsh	-3009
▁boats	-3010
▁nurse	-3011
▁barber	-3012
na	-3013
berry	-3014
▁beak	-3015
▁above	-3016
▁stage	-3017
▁study	-3018
▁stupid	-3019
▁excitedly	-3020
▁space	-3021
▁batter	-3022
▁lizard	-3023
▁suggested	-3024
▁shone	-3025
▁compass	-3026
▁regular	-3027
▁flashlight	-3028
vice	-3029
anger	-3030
▁cere	-3031
▁attic	-3032
▁shape	-3033
▁locked	-3034
▁spilled	-3035
▁terrible	-3036
▁hoop	-3037
▁tooth	-3038
▁trumpet	-3039
▁valuable	-3040
time	-3041
▁Ellie	-3042
▁arrow	-3043
ress	-3044
▁yet	-3045
illie	-3046
▁desk	-3047
▁pant	-3048
▁Sandy	-3049
▁cheap	-3050
▁earth	-3051
▁kicked	-3052
▁serious	-3053
▁thirsty	-3054
▁successful	-3055
arry	-3056
▁low	-3057
▁char	-3058
▁George	-3059
het	-3060
inal	-3061
▁lab	-3062
▁clum	-3063
▁scrat	-3064
How	-3065
▁orig	-3066
com	-3067
▁ow	-3068
▁rat	-3069
▁Polly	-3070
▁stove	-3071
corn	-3072
▁Kim	-3073
▁avo	-3074
▁envelope	-3075
▁Paul	-3076
▁witch	-3077
▁impress	-3078
▁themselves	-3079
▁er	-3080
▁son	-3081
aghet	-3082
▁comb	-3083
▁stops	-3084
aghetti	-3085
▁thunder	-3086
▁brightly	-3087
iew	-3088
▁hay	-3089
▁law	-3090
▁bees	-3091
▁raced	-3092
▁stamp	-3093
▁screen	-3094
▁dreaming	-3095
▁sniff	-3096
▁careless	-3097
▁original	-3098
▁Lola	-3099
▁Next	-3100
▁Your	-3101
▁view	-3102
▁wiped	-3103
▁washed	-3104
▁changed	-3105
▁spaghetti	-3106
uth	-3107
▁Andy	-3108
▁helm	-3109
▁ending	-3110
▁stickers	-3111
▁beetle	-3112
▁rushed	-3113
▁warned	-3114
▁delicate	-3115
▁mis	-3116
▁Joey	-3117
▁flex	-3118
isk	-3119
gest	-3120
▁yog	-3121
ience	-3122
▁carp	-3123
▁steal	-3124
▁those	-3125
berries	-3126
▁clumsy	-3127
▁leaving	-3128
▁persist	-3129
▁compassion	-3130
!".	-3131
oomy	-3132
▁tor	-3133
▁dead	-3134
▁travel	-3135
▁biggest	-3136
▁popcorn	-3137
▁enc	-3138
▁bean	-3139
▁dough	-3140
▁finding	-3141
▁pumpkin	-3142
▁Red	-3143
▁ing	-3144
▁sne	-3145
ision	-3146
▁tomato	-3147
▁discover	-3148
▁wire	-3149
▁library	-3150
robe	-3151
uring	-3152
▁snee	-3153
▁grand	-3154
redient	-3155
▁complet	-3156
▁deliver	-3157
▁graceful	-3158
▁ingredient	-3159
▁unk	-3160
▁meal	-3161
▁sorts	-3162
▁cereal	-3163
▁telling	-3164
▁early	-3165
▁knock	-3166
▁uncle	-3167
▁peeked	-3168
▁imagined	-3169
rell	-3170
▁task	-3171
▁trap	-3172
▁hairy	-3173
▁missing	-3174
▁counting	-3175
▁ingredients	-3176
▁pup	-3177
▁advice	-3178
▁jacket	-3179
▁mel	-3180
▁zip	-3181
▁humble	-3182
▁shiver	-3183
cu	-3184
▁pale	-3185
▁doesn	-3186
▁forth	-3187
▁guard	-3188
▁destro	-3189
▁square	-3190
▁stranger	-3191
There	-3192
▁Toby	-3193
▁sudden	-3194
▁flexible	-3195
ilty	-3196
▁hipp	-3197
▁pige	-3198
▁guilty	-3199
▁driving	-3200
▁playful	-3201
▁aunt	-3202
▁Tweetie	-3203
▁question	-3204
▁thinking	-3205
▁whispered	-3206
▁impressive	-3207
▁cards	-3208
▁jolly	-3209
▁opens	-3210
▁speed	-3211
▁collar	-3212
▁create	-3213
▁nicely	-3214
▁slides	-3215
▁carrying	-3216
cod	-3217
nown	-3218
▁cur	-3219
▁allowed	-3220
▁twirled	-3221
▁Ro	-3222
▁print	-3223
▁handle	-3224
▁hunter	-3225
▁sparkled	-3226
illa	-3227
▁brace	-3228
▁popular	-3229
▁sticker	-3230
host	-3231
▁rub	-3232
▁umb	-3233
ement	-3234
▁umbrell	-3235
fa	-3236
ud	-3237
▁anx	-3238
▁env	-3239
▁tap	-3240
▁rubb	-3241
▁sink	-3242
▁tied	-3243
ations	-3244
▁base	-3245
▁disg	-3246
comfort	-3247
▁rubbed	-3248
bled	-3249
▁carpet	-3250
▁friendship	-3251
tter	-3252
▁cooking	-3253
▁disgust	-3254
▁charming	-3255
▁uncomfort	-3256
▁persistent	-3257
▁uncomfortable	-3258
▁gum	-3259
▁gira	-3260
▁holds	-3261
▁shocked	-3262
awn	-3263
ream	-3264
ellig	-3265
▁perm	-3266
▁wing	-3267
▁ghost	-3268
▁metal	-3269
▁anxious	-3270
▁refused	-3271
▁dolphin	-3272
▁intellig	-3273
▁butterflies	-3274
▁dust	-3275
▁sett	-3276
▁crocod	-3277
▁gasped	-3278
▁scatter	-3279
▁unknown	-3280
▁eng	-3281
arian	-3282
▁pants	-3283
▁patch	-3284
▁scoot	-3285
▁comput	-3286
▁patter	-3287
loo	-3288
aroo	-3289
ugged	-3290
▁neat	-3291
angaroo	-3292
▁spinning	-3293
They	-3294
▁shel	-3295
▁nature	-3296
▁chasing	-3297
▁pattern	-3298
▁kangaroo	-3299
▁celebrate	-3300
▁led	-3301
▁moder	-3302
▁pasta	-3303
▁wheels	-3304
œLetâ	-3305
▁hippo	-3306
▁names	-3307
▁truth	-3308
▁hammer	-3309
▁ordinary	-3310
▁Snow	-3311
▁mask	-3312
▁surf	-3313
▁torn	-3314
▁encou	-3315
oe	-3316
coa	-3317
▁Pe	-3318
▁stat	-3319
▁cocoa	-3320
▁impat	-3321
▁resist	-3322
œIt	-3323
▁phot	-3324
▁goose	-3325
Ow	-3326
▁Pat	-3327
▁Here	-3328
▁acorn	-3329
Re	-3330
▁perform	-3331
eer	-3332
▁bent	-3333
▁pand	-3334
▁zipp	-3335
▁otter	-3336
▁growing	-3337
▁impatient	-3338
ffee	-3339
iches	-3340
▁math	-3341
▁skip	-3342
▁crazy	-3343
▁prize	-3344
▁modern	-3345
▁harmless	-3346
▁sleeping	-3347
▁snuggled	-3348
ray	-3349
▁oat	-3350
orant	-3351
œWhat	-3352
▁rece	-3353
aurant	-3354
▁Grace	-3355
▁crane	-3356
▁scale	-3357
▁shine	-3358
▁magnet	-3359
▁fireman	-3360
▁restaurant	-3361
He	-3362
▁Maria	-3363
▁split	-3364
▁trash	-3365
▁beauty	-3366
▁potato	-3367
▁attract	-3368
▁destroy	-3369
▁windows	-3370
▁shoe	-3371
▁reind	-3372
▁handed	-3373
▁placed	-3374
▁unpack	-3375
▁intelligent	-3376
▁Look	-3377
▁spoke	-3378
▁super	-3379
▁Millie	-3380
▁cricket	-3381
▁Sm	-3382
ipop	-3383
▁loll	-3384
▁disgusting	-3385
▁compassionate	-3386
See	-3387
cut	-3388
▁sofa	-3389
▁umbrella	-3390
▁Tr	-3391
▁tem	-3392
▁load	-3393
▁ahead	-3394
▁starts	-3395
▁lollipop	-3396
noon	-3397
▁wheat	-3398
▁candle	-3399
▁drawer	-3400
▁Brownie	-3401
▁distant	-3402
▁afternoon	-3403
▁sandwiches	-3404
Go	-3405
▁waff	-3406
▁yawn	-3407
▁ignorant	-3408
ips	-3409
ince	-3410
aches	-3411
▁chance	-3412
▁triang	-3413
▁bracelet	-3414
▁reindeer	-3415
ikes	-3416
▁dug	-3417
ophone	-3418
▁hedge	-3419
▁rules	-3420
▁pigeon	-3421
▁spring	-3422
▁country	-3423
aby	-3424
▁hook	-3425
▁reco	-3426
▁trop	-3427
▁clock	-3428
▁flour	-3429
▁shield	-3430
▁bin	-3431
▁shut	-3432
▁purse	-3433
▁coffee	-3434
▁couldnâ	-3435
▁support	-3436
▁hung	-3437
▁cupboard	-3438
▁restless	-3439
▁ol	-3440
▁jug	-3441
▁cord	-3442
▁tire	-3443
▁harsh	-3444
▁order	-3445
▁gifted	-3446
▁trophy	-3447
▁mailbox	-3448
ict	-3449
▁may	-3450
▁sym	-3451
▁jumps	-3452
lcano	-3453
▁cats	-3454
▁note	-3455
erable	-3456
▁sadly	-3457
▁shrimp	-3458
▁silver	-3459
▁miserable	-3460
af	-3461
ices	-3462
cycle	-3463
▁Will	-3464
▁film	-3465
▁mush	-3466
▁send	-3467
▁shadow	-3468
▁crocodile	-3469
▁pretending	-3470
gu	-3471
▁ax	-3472
aser	-3473
gging	-3474
▁leop	-3475
▁Sophie	-3476
▁engine	-3477
▁itself	-3478
Yay	-3479
bol	-3480
ibb	-3481
▁camp	-3482
▁hurry	-3483
▁melon	-3484
▁courage	-3485
▁further	-3486
▁practiced	-3487
▁muff	-3488
▁impro	-3489
▁object	-3490
▁symbol	-3491
▁anywhere	-3492
▁computer	-3493
gn	-3494
uct	-3495
▁fu	-3496
▁bri	-3497
▁mill	-3498
▁vine	-3499
▁trick	-3500
▁creatures	-3501
œYes	-3502
▁enth	-3503
▁goal	-3504
▁jeep	-3505
▁compl	-3506
▁towers	-3507
aled	-3508
▁repe	-3509
▁rose	-3510
▁painter	-3511
▁rice	-3512
▁stack	-3513
▁Before	-3514
▁cooler	-3515
▁envious	-3516
▁reading	-3517
▁pony	-3518
▁Buddy	-3519
▁Bunny	-3520
▁parade	-3521
▁wishes	-3522
▁station	-3523
az	-3524
und	-3525
▁cryst	-3526
▁needle	-3527
▁cartoon	-3528
▁forgave	-3529
iron	-3530
stri	-3531
▁Are	-3532
▁axe	-3533
▁kay	-3534
œThat	-3535
▁enthus	-3536
▁stretched	-3537
▁treasures	-3538
▁helmet	-3539
▁reward	-3540
▁nowhere	-3541
▁attractive	-3542
ric	-3543
▁jet	-3544
▁Give	-3545
▁laser	-3546
▁older	-3547
▁second	-3548
▁letters	-3549
▁sweater	-3550
▁brighter	-3551
▁helpless	-3552
▁troubled	-3553
▁oy	-3554
▁Where	-3555
▁scold	-3556
▁pastry	-3557
▁message	-3558
▁football	-3559
▁Ru	-3560
▁ten	-3561
cream	-3562
▁badly	-3563
▁panda	-3564
▁track	-3565
▁value	-3566
▁cushion	-3567
▁package	-3568
▁scooter	-3569
▁competitive	-3570
▁Un	-3571
▁pilot	-3572
▁recogn	-3573
▁mushroom	-3574
ebra	-3575
▁por	-3576
▁micr	-3577
▁salt	-3578
▁sock	-3579
▁alert	-3580
▁giggle	-3581
▁gloomy	-3582
▁tricks	-3583
▁fearful	-3584
▁pressed	-3585
▁theater	-3586
▁visited	-3587
htub	-3588
▁hall	-3589
▁human	-3590
▁spell	-3591
▁anyway	-3592
▁bandage	-3593
▁beep	-3594
▁deaf	-3595
▁tear	-3596
orable	-3597
▁admire	-3598
▁eraser	-3599
▁shouts	-3600
▁switch	-3601
▁bathtub	-3602
kelet	-3603
▁cows	-3604
▁pengu	-3605
▁zebra	-3606
▁barrel	-3607
▁volcano	-3608
▁microphone	-3609
ef	-3610
▁Ros	-3611
▁ener	-3612
orilla	-3613
▁thread	-3614
▁swinging	-3615
hino	-3616
▁avoc	-3617
▁raven	-3618
▁roared	-3619
▁statue	-3620
▁bounced	-3621
▁leopard	-3622
▁soldier	-3623
▁tray	-3624
stairs	-3625
▁Annie	-3626
▁Smith	-3627
▁starting	-3628
ctop	-3629
▁hive	-3630
▁nuts	-3631
▁size	-3632
ctopus	-3633
iskers	-3634
▁holes	-3635
▁obser	-3636
▁modest	-3637
▁strugg	-3638
ci	-3639
ne	-3640
year	-3641
ebook	-3642
▁sent	-3643
▁peach	-3644
▁steps	-3645
keleton	-3646
▁riding	-3647
▁squash	-3648
▁adorable	-3649
▁Everything	-3650
▁Sh	-3651
ckey	-3652
▁hockey	-3653
▁octopus	-3654
▁notebook	-3655
▁respectful	-3656
ses	-3657
▁lip	-3658
▁Bill	-3659
▁curt	-3660
▁chain	-3661
▁curtain	-3662
▁shaking	-3663
▁Whiskers	-3664
▁backpack	-3665
▁mop	-3666
▁ants	-3667
▁five	-3668
▁quar	-3669
▁behave	-3670
▁wallet	-3671
▁gorilla	-3672
▁haircut	-3673
▁shopkeeper	-3674
ceros	-3675
▁Kate	-3676
strich	-3677
▁filthy	-3678
hinoceros	-3679
▁ur	-3680
ceed	-3681
▁boots	-3682
▁pulls	-3683
▁either	-3684
▁papers	-3685
▁stirred	-3686
▁tripped	-3687
Give	-3688
▁pad	-3689
▁Jerry	-3690
▁nobody	-3691
▁sunset	-3692
▁checked	-3693
▁explain	-3694
▁sandbox	-3695
If	-3696
arnt	-3697
ccol	-3698
ccoli	-3699
▁sort	-3700
▁avail	-3701
▁learnt	-3702
▁decorate	-3703
erc	-3704
▁mug	-3705
▁pun	-3706
▁golf	-3707
▁meas	-3708
▁rescue	-3709
▁crystal	-3710
▁pushing	-3711
▁motorcycle	-3712
nna	-3713
▁art	-3714
▁vest	-3715
▁James	-3716
▁cooked	-3717
▁pebble	-3718
▁powder	-3719
▁sailor	-3720
▁lightning	-3721
▁somewhere	-3722
▁rhinoceros	-3723
ief	-3724
iest	-3725
▁Snowy	-3726
▁porch	-3727
▁short	-3728
▁stared	-3729
▁giraffe	-3730
▁rolling	-3731
▁clapping	-3732
▁vi	-3733
▁dess	-3734
▁exper	-3735
▁jokes	-3736
▁skeleton	-3737
▁bet	-3738
▁incl	-3739
render	-3740
▁unlock	-3741
▁available	-3742
reci	-3743
sely	-3744
▁comet	-3745
▁kayak	-3746
▁point	-3747
▁dishes	-3748
▁trains	-3749
▁succeed	-3750
▁organize	-3751
par	-3752
seum	-3753
ucked	-3754
▁exerc	-3755
▁leash	-3756
▁quite	-3757
▁happier	-3758
enry	-3759
astic	-3760
ooped	-3761
▁hadn	-3762
▁paws	-3763
▁stom	-3764
▁laund	-3765
▁separ	-3766
▁barking	-3767
▁frowned	-3768
▁listening	-3769
ube	-3770
hood	-3771
▁tur	-3772
elery	-3773
▁toil	-3774
▁museum	-3775
▁appreci	-3776
▁colours	-3777
▁climbing	-3778
▁complete	-3779
▁triangle	-3780
▁unh	-3781
ummer	-3782
▁case	-3783
▁peek	-3784
▁seal	-3785
▁zipper	-3786
▁dessert	-3787
▁laundry	-3788
▁weather	-3789
night	-3790
▁Jess	-3791
▁cane	-3792
▁broccoli	-3793
▁reef	-3794
inking	-3795
▁Henry	-3796
▁slipp	-3797
ubby	-3798
▁iron	-3799
▁Charl	-3800
▁Rosie	-3801
▁pushes	-3802
▁closely	-3803
▁monkeys	-3804
▁putting	-3805
▁surrender	-3806
cast	-3807
▁brus	-3808
▁pipe	-3809
▁spir	-3810
▁yach	-3811
▁breat	-3812
▁lions	-3813
▁blowing	-3814
io	-3815
urb	-3816
come	-3817
▁ped	-3818
▁sle	-3819
▁speak	-3820
▁toilet	-3821
▁turkey	-3822
▁disturb	-3823
▁marched	-3824
Bye	-3825
ges	-3826
ron	-3827
aked	-3828
▁bicy	-3829
▁barks	-3830
▁finds	-3831
▁skill	-3832
▁lively	-3833
▁stuffed	-3834
▁drawings	-3835
Anna	-3836
heart	-3837
▁Bear	-3838
▁nail	-3839
▁rever	-3840
▁napkin	-3841
▁sandcast	-3842
▁ended	-3843
▁yacht	-3844
▁dancer	-3845
▁polish	-3846
▁costume	-3847
anic	-3848
▁ink	-3849
▁fort	-3850
▁softly	-3851
▁ostrich	-3852
olin	-3853
ected	-3854
iling	-3855
▁mild	-3856
▁ribb	-3857
chanic	-3858
▁raining	-3859
gs	-3860
▁Ab	-3861
▁lid	-3862
▁oil	-3863
vator	-3864
▁appl	-3865
▁club	-3866
▁tube	-3867
▁chubby	-3868
▁thanks	-3869
▁univer	-3870
play	-3871
▁Kat	-3872
▁inf	-3873
aulif	-3874
▁crow	-3875
ecause	-3876
▁piano	-3877
▁elevator	-3878
▁mechanic	-3879
▁basketball	-3880
▁belt	-3881
▁Lilly	-3882
▁mixer	-3883
▁strip	-3884
▁bubble	-3885
▁hoping	-3886
▁unhappy	-3887
ison	-3888
▁glove	-3889
▁caulif	-3890
▁spirit	-3891
▁airport	-3892
ites	-3893
▁hut	-3894
▁cups	-3895
▁wife	-3896
▁bikes	-3897
▁judge	-3898
▁press	-3899
▁insist	-3900
▁welcomed	-3901
▁pair	-3902
▁drops	-3903
▁frame	-3904
▁grabs	-3905
▁magaz	-3906
▁leaned	-3907
€“	-3908
edy	-3909
stic	-3910
▁mama	-3911
▁thief	-3912
▁grapes	-3913
▁quarrel	-3914
mand	-3915
▁Ste	-3916
▁prov	-3917
▁repair	-3918
▁evening	-3919
▁baseball	-3920
▁Inst	-3921
▁buzz	-3922
iastic	-3923
▁screw	-3924
▁sneak	-3925
▁celery	-3926
▁factor	-3927
▁oyster	-3928
▁radish	-3929
▁imagine	-3930
▁apologized	-3931
▁enthusiastic	-3932
▁Bun	-3933
▁men	-3934
▁rag	-3935
▁tub	-3936
▁luck	-3937
▁given	-3938
▁breaks	-3939
▁Charlie	-3940
▁counter	-3941
▁display	-3942
▁shelter	-3943
▁cherries	-3944
▁mule	-3945
▁veil	-3946
▁didnâ	-3947
▁marry	-3948
▁zoomed	-3949
▁factory	-3950
aff	-3951
azz	-3952
zzy	-3953
▁fisher	-3954
▁bicycle	-3955
▁Baby	-3956
▁lend	-3957
▁shade	-3958
▁energy	-3959
▁feelings	-3960
▁bul	-3961
▁poem	-3962
▁frogs	-3963
▁hopes	-3964
▁cauliflower	-3965
▁rod	-3966
imney	-3967
▁prun	-3968
▁bears	-3969
▁chimney	-3970
▁Pap	-3971
iture	-3972
▁furn	-3973
▁pole	-3974
▁weep	-3975
▁stretch	-3976
▁furniture	-3977
▁See	-3978
▁gym	-3979
▁bulb	-3980
▁maze	-3981
▁paid	-3982
▁raft	-3983
▁Harry	-3984
▁player	-3985
any	-3986
ense	-3987
icer	-3988
aused	-3989
chair	-3990
▁staff	-3991
▁shakes	-3992
rod	-3993
ccer	-3994
▁dive	-3995
▁cheek	-3996
▁kitty	-3997
▁lives	-3998
▁introd	-3999
▁soccer	-4000
▁slippery	-4001
▁attention	-4002
▁neighbour	-4003
▁perfectly	-4004
▁news	-4005
▁photo	-4006
▁sheet	-4007
▁trail	-4008
▁smells	-4009
▁violin	-4010
▁falling	-4011
gen	-4012
▁bur	-4013
▁knot	-4014
▁pine	-4015
▁quit	-4016
▁chirp	-4017
▁bananas	-4018
▁married	-4019
angu	-4020
▁har	-4021
▁lie	-4022
▁crib	-4023
▁page	-4024
▁langu	-4025
▁summer	-4026
▁firework	-4027
▁sweetheart	-4028
▁Lee	-4029
▁lime	-4030
▁reve	-4031
▁onion	-4032
▁golden	-4033
▁sprink	-4034
▁belongs	-4035
▁cabinet	-4036
▁armchair	-4037
▁cardboard	-4038
ait	-4039
low	-4040
men	-4041
▁sir	-4042
Timmy	-4043
aring	-4044
ories	-4045
▁True	-4046
▁shouldn	-4047
Dad	-4048
▁gro	-4049
▁wool	-4050
▁Would	-4051
▁trave	-4052
▁sticky	-4053
▁puddles	-4054
TMm	-4055
sing	-4056
▁tuna	-4057
▁fields	-4058
▁chickens	-4059
bul	-4060
▁Papa	-4061
▁Instead	-4062
▁scolded	-4063
enny	-4064
œYou	-4065
▁vide	-4066
eterin	-4067
▁swung	-4068
eterinarian	-4069
..	-4070
▁Mag	-4071
reeze	-4072
▁soil	-4073
▁Danny	-4074
▁therm	-4075
▁burned	-4076
▁avocado	-4077
▁straight	-4078
hero	-4079
izes	-4080
▁rot	-4081
▁herb	-4082
ometer	-4083
▁disag	-4084
▁flies	-4085
▁pirates	-4086
▁prevent	-4087
▁fisherman	-4088
▁veterinarian	-4089
aud	-4090
ween	-4091
▁Ruby	-4092
▁journ	-4093
▁novel	-4094
▁offer	-4095
▁petals	-4096
▁shovel	-4097
▁between	-4098
▁created	-4099
▁superhero	-4100
▁imagination	-4101
▁glowing	-4102
▁meeting	-4103
▁classroom	-4104
hic	-4105
▁Tony	-4106
▁opera	-4107
▁twink	-4108
▁vehic	-4109
▁kingdom	-4110
▁plastic	-4111
▁memories	-4112
▁mistakes	-4113
▁thermometer	-4114
▁ble	-4115
▁pal	-4116
anges	-4117
▁cell	-4118
unately	-4119
▁seeing	-4120
▁throws	-4121
▁fishing	-4122
▁shoulder	-4123
lass	-4124
▁meat	-4125
▁slept	-4126
▁ceiling	-4127
▁ignored	-4128
▁passport	-4129
▁jellyfish	-4130
ues	-4131
▁tax	-4132
▁radio	-4133
▁forgotten	-4134
▁celebrated	-4135
ngth	-4136
▁doors	-4137
▁skirt	-4138
▁teleph	-4139
▁journal	-4140
▁oak	-4141
▁heads	-4142
▁makeup	-4143
▁accepted	-4144
▁presents	-4145
▁telephone	-4146
▁Co	-4147
Your	-4148
▁Bet	-4149
▁donâ	-4150
▁stro	-4151
▁vend	-4152
▁allig	-4153
▁flame	-4154
▁pinch	-4155
▁infant	-4156
▁strength	-4157
▁throwing	-4158
gie	-4159
ents	-4160
▁fle	-4161
▁vet	-4162
chie	-4163
▁file	-4164
▁loop	-4165
▁taxi	-4166
▁ambul	-4167
▁swamp	-4168
▁grocer	-4169
▁points	-4170
▁applaud	-4171
urch	-4172
drobe	-4173
vision	-4174
▁alive	-4175
▁baking	-4176
▁planet	-4177
▁rubber	-4178
▁writing	-4179
▁shouting	-4180
▁wardrobe	-4181
te	-4182
reek	-4183
achel	-4184
▁Miss	-4185
▁Tina	-4186
▁cube	-4187
▁seas	-4188
▁sung	-4189
▁creek	-4190
▁discu	-4191
▁steam	-4192
▁worth	-4193
▁Rachel	-4194
▁palace	-4195
▁winter	-4196
▁lemonade	-4197
▁magazine	-4198
bbie	-4199
ores	-4200
▁itch	-4201
▁wags	-4202
▁diary	-4203
Because	-4204
▁shower	-4205
▁Buzz	-4206
▁Steve	-4207
▁attach	-4208
▁folder	-4209
▁hanging	-4210
▁squirrels	-4211
▁strawberry	-4212
▁television	-4213
Max	-4214
bor	-4215
ggy	-4216
ium	-4217
▁aut	-4218
▁fog	-4219
▁boot	-4220
▁quack	-4221
▁greedy	-4222
▁stable	-4223
nam	-4224
▁inse	-4225
ssible	-4226
▁parent	-4227
▁flapped	-4228
▁prepare	-4229
▁knob	-4230
▁Clara	-4231
▁chalk	-4232
▁medal	-4233
▁helper	-4234
▁follows	-4235
▁mystery	-4236
▁sailing	-4237
▁sprayed	-4238
▁surround	-4239
ito	-4240
icop	-4241
▁pra	-4242
▁vac	-4243
▁Help	-4244
▁argue	-4245
▁moves	-4246
▁ornam	-4247
▁serve	-4248
icopter	-4249
▁alligator	-4250
▁ambulance	-4251
▁disappear	-4252
▁helicopter	-4253
sit	-4254
tress	-4255
▁grin	-4256
▁First	-4257
▁below	-4258
▁freez	-4259
▁signs	-4260
▁harbor	-4261
▁mattress	-4262
ab	-4263
una	-4264
rosc	-4265
▁stud	-4266
lasses	-4267
▁waving	-4268
▁However	-4269
▁dressed	-4270
▁eagerly	-4271
▁sunglasses	-4272
ups	-4273
œItâ	-4274
▁known	-4275
▁minute	-4276
▁vendor	-4277
▁microsc	-4278
lier	-4279
ipping	-4280
▁firef	-4281
▁cherry	-4282
▁popped	-4283
▁microscope	-4284
imi	-4285
case	-4286
igail	-4287
ising	-4288
▁requ	-4289
▁wine	-4290
▁apart	-4291
▁grill	-4292
▁rooms	-4293
▁weigh	-4294
▁fallen	-4295
▁letting	-4296
▁fauc	-4297
▁pear	-4298
▁berry	-4299
▁refre	-4300
▁complain	-4301
▁language	-4302
▁God	-4303
estig	-4304
▁Mimi	-4305
▁lawn	-4306
▁wipe	-4307
elcome	-4308
▁easily	-4309
▁investig	-4310
▁blackboard	-4311
mm	-4312
Did	-4313
inky	-4314
▁Each	-4315
▁breeze	-4316
▁faucet	-4317
▁headed	-4318
▁Abigail	-4319
▁quietly	-4320
amb	-4321
iday	-4322
omob	-4323
tain	-4324
▁cob	-4325
▁cared	-4326
▁since	-4327
▁thumb	-4328
▁taller	-4329
▁crossed	-4330
▁entered	-4331
▁whisper	-4332
quito	-4333
▁leak	-4334
▁sque	-4335
▁poked	-4336
▁Maggie	-4337
▁chairs	-4338
▁kisses	-4339
▁automob	-4340
▁earlier	-4341
▁happens	-4342
▁relaxed	-4343
▁reverse	-4344
▁ig	-4345
▁pur	-4346
adium	-4347
▁Luck	-4348
▁suff	-4349
▁igloo	-4350
▁fought	-4351
▁regret	-4352
▁improve	-4353
▁stadium	-4354
▁crawling	-4355
▁exercise	-4356
▁musician	-4357
▁Iâ	-4358
asis	-4359
▁alarm	-4360
▁apron	-4361
▁crash	-4362
▁delay	-4363
▁waste	-4364
▁caring	-4365
▁church	-4366
▁waffle	-4367
▁dresses	-4368
▁request	-4369
▁sniffed	-4370
▁vacation	-4371
chor	-4372
▁wigg	-4373
▁Katie	-4374
▁balan	-4375
▁cliff	-4376
▁olive	-4377
▁lumber	-4378
▁fastest	-4379
▁separate	-4380
▁investigate	-4381
web	-4382
yer	-4383
▁hol	-4384
▁poke	-4385
▁airpl	-4386
▁sizes	-4387
▁insect	-4388
▁holiday	-4389
'.	-4390
▁claw	-4391
▁saus	-4392
▁Milly	-4393
▁appro	-4394
▁oasis	-4395
▁vroom	-4396
▁skills	-4397
▁puzzles	-4398
▁sparkle	-4399
▁surprises	-4400
ero	-4401
▁Ted	-4402
▁mos	-4403
orses	-4404
▁cable	-4405
▁shrink	-4406
▁yogurt	-4407
▁mosquito	-4408
opl	-4409
▁Jul	-4410
▁May	-4411
▁aer	-4412
▁dear	-4413
▁spots	-4414
▁yield	-4415
▁aeropl	-4416
▁cobweb	-4417
▁lotion	-4418
▁Luckily	-4419
▁reaches	-4420
▁bouncing	-4421
▁amazement	-4422
▁scattered	-4423
fortunately	-4424
▁destination	-4425
ety	-4426
ler	-4427
uch	-4428
medi	-4429
▁isn	-4430
▁Spike	-4431
▁incre	-4432
▁horses	-4433
▁lawyer	-4434
▁supply	-4435
▁tucked	-4436
mediately	-4437
▁splashing	-4438
was	-4439
Wait	-4440
▁Who	-4441
sters	-4442
▁mint	-4443
▁rake	-4444
washer	-4445
▁float	-4446
▁safety	-4447
▁oranges	-4448
▁trusted	-4449
▁dishwasher	-4450
omm	-4451
oral	-4452
▁unif	-4453
▁hearts	-4454
▁yawned	-4455
▁flutter	-4456
▁mailman	-4457
▁vehicle	-4458
▁collected	-4459
aces	-4460
ives	-4461
▁itâ	-4462
▁pit	-4463
right	-4464
ommend	-4465
▁Freddy	-4466
▁anchor	-4467
▁floated	-4468
▁squeeze	-4469
▁shooting	-4470
▁shrugged	-4471
▁blueberries	-4472
▁Sad	-4473
▁bother	-4474
▁laught	-4475
▁muffin	-4476
▁saving	-4477
▁castles	-4478
▁rabbits	-4479
▁spending	-4480
▁recommend	-4481
▁automobile	-4482
nger	-4483
▁tug	-4484
▁tut	-4485
ction	-4486
icing	-4487
inked	-4488
place	-4489
▁poppy	-4490
▁choice	-4491
▁demand	-4492
▁examine	-4493
€.	-4494
ops	-4495
omes	-4496
raged	-4497
▁conf	-4498
▁quiz	-4499
▁achie	-4500
▁licks	-4501
▁spade	-4502
▁worms	-4503
▁ribbon	-4504
▁candles	-4505
▁hurting	-4506
▁sparkling	-4507
▁experience	-4508
▁King	-4509
ucture	-4510
▁kneel	-4511
▁uniform	-4512
▁bookcase	-4513
▁laughter	-4514
▁squeezed	-4515
▁following	-4516
▁structure	-4517
oh	-4518
▁raz	-4519
▁agree	-4520
▁eaten	-4521
▁bumped	-4522
▁buried	-4523
▁remove	-4524
▁penguin	-4525
▁praised	-4526
▁bury	-4527
▁sigh	-4528
▁Penny	-4529
▁beans	-4530
▁video	-4531
▁includ	-4532
▁plates	-4533
▁mention	-4534
cakes	-4535
▁flea	-4536
▁fuel	-4537
▁rise	-4538
▁snap	-4539
▁tong	-4540
Thanks	-4541
▁chess	-4542
▁instr	-4543
▁miner	-4544
▁plays	-4545
▁sings	-4546
▁spear	-4547
▁Or	-4548
nies	-4549
▁simp	-4550
▁hills	-4551
▁blinked	-4552
▁scooped	-4553
▁tornado	-4554
Sam	-4555
Yuck	-4556
ival	-4557
▁equ	-4558
▁razor	-4559
▁ignore	-4560
▁battery	-4561
▁captain	-4562
▁ringing	-4563
▁settled	-4564
▁snapped	-4565
▁washing	-4566
▁destroyed	-4567
▁understanding	-4568
Is	-4569
▁mall	-4570
iction	-4571
▁dried	-4572
▁ideas	-4573
▁growled	-4574
▁keeping	-4575
▁blankets	-4576
▁appreciate	-4577
▁palm	-4578
▁toes	-4579
▁admir	-4580
ictionary	-4581
ib	-4582
ple	-4583
▁glo	-4584
▁fest	-4585
▁sits	-4586
▁enter	-4587
▁manage	-4588
▁watches	-4589
▁wandered	-4590
▁aeroplane	-4591
▁fireplace	-4592
▁sandcastle	-4593
▁Is	-4594
ived	-4595
omeday	-4596
▁bleed	-4597
▁label	-4598
▁myself	-4599
▁Joy	-4600
amber	-4601
▁port	-4602
▁coats	-4603
▁melted	-4604
▁bravely	-4605
▁Everyday	-4606
▁dictionary	-4607
nce	-4608
alley	-4609
▁junk	-4610
▁oats	-4611
▁tide	-4612
▁yoga	-4613
▁yucky	-4614
▁freezer	-4615
▁jewelry	-4616
▁setting	-4617
▁strawberries	-4618
And	-4619
ring	-4620
▁Chl	-4621
▁Its	-4622
▁root	-4623
▁tore	-4624
uggage	-4625
▁claws	-4626
▁score	-4627
▁tutor	-4628
▁sneeze	-4629
▁stomach	-4630
▁gifts	-4631
▁pages	-4632
▁pride	-4633
▁trade	-4634
▁climbs	-4635
▁luggage	-4636
bey	-4637
▁hits	-4638
▁Chloe	-4639
▁planes	-4640
▁moments	-4641
▁scratch	-4642
▁someday	-4643
▁airplane	-4644
▁floating	-4645
▁vanished	-4646
▁Me	-4647
Sara	-4648
▁prop	-4649
▁appear	-4650
▁beamed	-4651
▁sub	-4652
antly	-4653
umble	-4654
▁beef	-4655
▁repeat	-4656
▁believed	-4657
▁struggling	-4658
▁ga	-4659
rise	-4660
▁Beth	-4661
▁weap	-4662
▁temple	-4663
▁burning	-4664
▁blueberry	-4665
ah	-4666
ls	-4667
vet	-4668
▁dire	-4669
▁item	-4670
▁drain	-4671
▁weeks	-4672
emember	-4673
▁chores	-4674
▁tongue	-4675
▁valley	-4676
▁jogging	-4677
▁elephants	-4678
▁whistling	-4679
▁Liz	-4680
▁Coco	-4681
▁gear	-4682
▁shot	-4683
ishing	-4684
ission	-4685
▁calls	-4686
▁sport	-4687
▁nation	-4688
▁remain	-4689
▁cuddled	-4690
▁festival	-4691
▁permission	-4692
▁immediately	-4693
▁Unfortunately	-4694
▁V	-4695
lend	-4696
▁res	-4697
▁hers	-4698
▁lily	-4699
▁bathe	-4700
▁raise	-4701
▁ranch	-4702
▁crunch	-4703
▁poison	-4704
▁chamber	-4705
▁sunrise	-4706
▁teaching	-4707
iers	-4708
house	-4709
▁homes	-4710
▁steak	-4711
▁breathe	-4712
▁marbles	-4713
▁provide	-4714
▁pulling	-4715
▁patiently	-4716
aped	-4717
seek	-4718
uture	-4719
▁Have	-4720
▁Remy	-4721
lendar	-4722
▁hesit	-4723
▁peanuts	-4724
▁calendar	-4725
osed	-4726
▁Anne	-4727
▁Good	-4728
▁jazz	-4729
▁spit	-4730
▁People	-4731
▁buckle	-4732
▁future	-4733
▁pastel	-4734
▁paused	-4735
▁stitch	-4736
▁ticket	-4737
▁warmth	-4738
▁collecting	-4739
TMre	-4740
allow	-4741
ipment	-4742
▁hotel	-4743
▁prayed	-4744
▁thrilled	-4745
▁approached	-4746
fume	-4747
▁gust	-4748
▁shed	-4749
▁daisy	-4750
▁tease	-4751
▁alright	-4752
▁warning	-4753
▁chirping	-4754
▁equipment	-4755
▁encouraged	-4756
ging	-4757
ampoo	-4758
▁coal	-4759
▁panic	-4760
▁skull	-4761
▁socks	-4762
▁begged	-4763
▁punish	-4764
▁answers	-4765
▁earthqu	-4766
▁missile	-4767
▁perfume	-4768
▁shampoo	-4769
▁insisted	-4770
▁skipping	-4771
osity	-4772
▁lick	-4773
▁none	-4774
▁cakes	-4775
▁restore	-4776
▁twisted	-4777
▁soldiers	-4778
▁guy	-4779
xture	-4780
mother	-4781
▁doggy	-4782
▁hardly	-4783
▁jewels	-4784
▁meowed	-4785
▁solved	-4786
▁observe	-4787
▁respons	-4788
▁received	-4789
Qu	-4790
▁lic	-4791
▁sew	-4792
shing	-4793
▁lect	-4794
▁sore	-4795
▁event	-4796
▁unite	-4797
Welcome	-4798
▁bricks	-4799
▁lecture	-4800
▁receive	-4801
▁revealed	-4802
fy	-4803
anna	-4804
▁Nut	-4805
These	-4806
istol	-4807
▁bites	-4808
▁deeper	-4809
▁pistol	-4810
▁ordered	-4811
act	-4812
Ouch	-4813
▁sty	-4814
▁bang	-4815
▁digg	-4816
▁fasc	-4817
▁comfy	-4818
▁parts	-4819
▁copper	-4820
▁matches	-4821
▁patterns	-4822
▁refreshed	-4823
▁recognized	-4824
▁emer	-4825
▁works	-4826
▁invite	-4827
▁digging	-4828
▁remained	-4829
ases	-4830
▁Car	-4831
▁row	-4832
▁sip	-4833
ities	-4834
▁chir	-4835
▁jail	-4836
▁warn	-4837
▁blood	-4838
▁drinking	-4839
▁supposed	-4840
▁upstairs	-4841
▁Not	-4842
▁hate	-4843
œThatâ	-4844
▁racing	-4845
▁chirped	-4846
▁discuss	-4847
▁grinned	-4848
▁mustache	-4849
▁discovery	-4850
cc	-4851
sity	-4852
▁Mat	-4853
▁ours	-4854
▁rush	-4855
▁urge	-4856
▁circus	-4857
▁fascin	-4858
▁simple	-4859
▁bookshe	-4860
▁measured	-4861
▁wherever	-4862
",	-4863
▁mass	-4864
▁girls	-4865
▁grape	-4866
▁spill	-4867
▁license	-4868
▁planted	-4869
▁decision	-4870
▁sunlight	-4871
▁Ol	-4872
bers	-4873
lvet	-4874
▁beg	-4875
▁eff	-4876
riger	-4877
▁pigs	-4878
▁Poppy	-4879
▁jogged	-4880
▁suffer	-4881
▁velvet	-4882
▁Bubbles	-4883
▁buzzing	-4884
▁crashed	-4885
▁replace	-4886
rigerator	-4887
▁apologize	-4888
▁earthquake	-4889
▁refrigerator	-4890
▁Fo	-4891
spap	-4892
▁Chr	-4893
▁bak	-4894
allen	-4895
▁obey	-4896
▁Chirp	-4897
▁Nutty	-4898
▁glowed	-4899
▁	-4900
e	-4901
a	-4902
t	-4903
o	-4904
h	-4905
n	-4906
i	-4907
d	-4908
s	-4909
r	-4910
l	-4911
y	-4912
m	-4913
w	-4914
.	-4915
u	-4916
g	-4917
c	-4918
p	-4919
f	-4920
b	-4921
k	-4922
,	-4923
T	-4924
v	-4925
"	-4926
S	-4927
H	-4928
L	-4929
'	-4930
I	-4931
O	-4932
!	-4933
B	-4934
M	-4935
x	-4936
A	-4937
W	-4938
j	-4939
J	-4940
Y	-4941
?	-4942
z	-4943
D	-4944
â	-4945
€	-4946
E	-4947
F	-4948
q	-4949
C	-4950
N	-4951
G	-4952
P	-4953
-	-4954
œ	-4955
R	-4956
K	-4957
:	-4958
3	-4959
V	-4960
Z	-4961
U	-4962
;	-4963
“	-4964
Q	-4965
1	-4966
0	-4967
”	-4968
̃	-4969
2	-4970
5	-4971
X	-4972
¦	-4973
4	-4974
Ã	-4975
©	-4976
8	-4977
9	-4978
7	-4979
Â	-4980
/	-4981
6	-4982
$	-4983
*	-4984
«	-4985
±	-4986
»	-4987
(	-4988
)	-4989
&	-4990
¡	-4991
Š	-4992
+	-4993
_	-4994
`	-4995
́	-4996
